<unk>	0
<s>	0
</s>	0
▁1	-0
▁2	-1
▁n	-2
▁t	-3
▁a	-4
gb	-5
▁o	-6
ẹ̀	-7
▁à	-8
ọ́	-9
▁i	-10
ẹ́	-11
▁l	-12
an	-13
▁k	-14
in	-15
ọ̀	-16
▁s	-17
ti	-18
▁ì	-19
un	-20
▁ní	-21
▁ni	-22
▁w	-23
ọn	-24
ún	-25
▁A	-26
er	-27
▁m	-28
▁f	-29
▁tí	-30
▁b	-31
▁p	-32
on	-33
▁ti	-34
▁j	-35
▁3	-36
▁ọ	-37
wọn	-38
ar	-39
rí	-40
▁ó	-41
▁4	-42
▁d	-43
le	-44
▁O	-45
▁r	-46
àn	-47
▁5	-48
▁N	-49
or	-50
▁gb	-51
▁6	-52
▁I	-53
▁ṣ	-54
▁20	-55
▁7	-56
▁8	-57
lẹ̀	-58
▁9	-59
▁y	-60
ra	-61
▁19	-62
▁àwọn	-63
▁S	-64
lé	-65
ri	-66
ọ́n	-67
▁M	-68
▁B	-69
pa	-70
▁è	-71
de	-72
si	-73
▁lá	-74
la	-75
ùn	-76
ni	-77
ba	-78
ìn	-79
▁sí	-80
▁e	-81
dún	-82
▁ò	-83
▁K	-84
rin	-85
▁L	-86
▁àti	-87
ta	-88
lá	-89
ko	-90
bi	-91
▁jẹ́	-92
▁ń	-93
▁À	-94
▁C	-95
se	-96
▁10	-97
lú	-98
▁Ì	-99
▁18	-100
lo	-101
lu	-102
▁T	-103
▁11	-104
▁12	-105
▁ọdún	-106
áà	-107
▁13	-108
▁15	-109
▁ṣe	-110
en	-111
mọ	-112
▁ẹ	-113
▁17	-114
▁14	-115
▁g	-116
▁16	-117
▁(	-118
kan	-119
gbà	-120
▁G	-121
kọ́	-122
▁ọ̀	-123
▁P	-124
▁25	-125
▁22	-126
▁24	-127
▁rẹ̀	-128
▁21	-129
▁23	-130
ín	-131
▁27	-132
▁F	-133
▁wọ́n	-134
▁26	-135
jú	-136
▁fún	-137
▁E	-138
▁fi	-139
▁si	-140
ìí	-141
▁bí	-142
▁Ọ	-143
▁nín	-144
▁ati	-145
ye	-146
di	-147
al	-148
won	-149
▁náà	-150
▁ẹ̀	-151
ati	-152
▁kan	-153
ro	-154
ló	-155
00	-156
▁tó	-157
es	-158
jọ	-159
▁D	-160
dè	-161
kọ	-162
mi	-163
▁Ó	-164
ara	-165
wo	-166
bí	-167
▁W	-168
ṣẹ́	-169
▁láti	-170
▁ló	-171
19	-172
▁sì	-173
to	-174
pọ̀	-175
▁wọn	-176
gba	-177
da	-178
▁28	-179
án	-180
▁nínú	-181
▁J	-182
mo	-183
po	-184
ka	-185
li	-186
ej	-187
▁er	-188
▁R	-189
▁awọn	-190
te	-191
▁di	-192
gun	-193
15	-194
14	-195
ju	-196
▁ọmọ	-197
17	-198
18	-199
▁Ní	-200
12	-201
13	-202
16	-203
yí	-204
bá	-205
10	-206
▁je	-207
▁to	-208
re	-209
20	-210
▁orí	-211
so	-212
rò	-213
ní	-214
▁gba	-215
▁ilé	-216
ch	-217
95	-218
▁awon	-219
mọ̀	-220
gbo	-221
98	-222
▁Y	-223
93	-224
96	-225
94	-226
97	-227
wa	-228
yé	-229
▁má	-230
jo	-231
23	-232
jọ́	-233
25	-234
90	-235
24	-236
▁H	-237
28	-238
yàn	-239
sí	-240
▁pé	-241
26	-242
fi	-243
27	-244
am	-245
▁Ò	-246
gbe	-247
lọ	-248
rùn	-249
▁kí	-250
lù	-251
th	-252
ki	-253
▁bá	-254
▁bi	-255
▁pa	-256
tà	-257
rú	-258
07	-259
wò	-260
▁yìí	-261
dá	-262
▁lọ	-263
86	-264
43	-265
87	-266
▁Ni	-267
57	-268
06	-269
56	-270
47	-271
53	-272
us	-273
gbé	-274
ran	-275
83	-276
46	-277
▁kò	-278
03	-279
ge	-280
kó	-281
▁eré	-282
nì	-283
ṣe	-284
we	-285
▁se	-286
ṣù	-287
wé	-288
▁ko	-289
▁wà	-290
kò	-291
ya	-292
ori	-293
inu	-294
yìn	-295
ga	-296
ọ̀n	-297
dun	-298
ere	-299
▁wa	-300
▁pe	-301
hun	-302
▁lati	-303
dé	-304
▁kó	-305
is	-306
he	-307
yẹ	-308
bo	-309
ṣẹ	-310
▁lo	-311
pe	-312
▁fun	-313
08	-314
om	-315
54	-316
ol	-317
▁ìlú	-318
ré	-319
ràn	-320
58	-321
gbá	-322
wó	-323
▁ilẹ̀	-324
jì	-325
wá	-326
04	-327
ur	-328
▁tún	-329
▁gbo	-330
el	-331
▁dá	-332
je	-333
tí	-334
▁ara	-335
dí	-336
ini	-337
mì	-338
77	-339
rẹ̀	-340
11	-341
66	-342
▁of	-343
33	-344
yi	-345
▁kẹ	-346
ke	-347
lẹ	-348
92	-349
yè	-350
▁alá	-351
▁won	-352
▁máa	-353
yà	-354
kọ̀	-355
lọ́	-356
▁èdè	-357
eri	-358
▁jẹ	-359
tu	-360
▁U	-361
▁ninu	-362
jí	-363
rọ̀	-364
84	-365
aa	-366
05	-367
là	-368
▁oṣù	-369
▁mẹ́	-370
ai	-371
as	-372
▁iṣẹ́	-373
99	-374
▁wá	-375
mu	-376
▁re	-377
du	-378
dà	-379
pá	-380
▁tà	-381
jẹ	-382
ter	-383
sì	-384
▁ori	-385
▁Ẹ	-386
nìyàn	-387
jà	-388
do	-389
ing	-390
▁le	-391
▁lọ́	-392
ṣè	-393
88	-394
wọ́	-395
ẹ́g	-396
▁È	-397
63	-398
gún	-399
55	-400
ma	-401
22	-402
yan	-403
▁oní	-404
tò	-405
44	-406
67	-407
ja	-408
ji	-409
kun	-410
na	-411
▁ile	-412
▁lè	-413
▁Ọ̀	-414
ani	-415
▁Àwọn	-416
gi	-417
▁ènìyàn	-418
ce	-419
▁"	-420
ẹ́gẹ́	-421
▁pẹ̀	-422
37	-423
bu	-424
▁ọjọ́	-425
▁orílẹ̀	-426
▁Ma	-427
àì	-428
▁kọ	-429
▁yi	-430
il	-431
wà	-432
èdè	-433
▁ba	-434
tì	-435
ty	-436
▁tàbí	-437
kà	-438
nu	-439
▁oló	-440
ku	-441
▁sọ	-442
ró	-443
bà	-444
▁mé	-445
▁pẹ̀lú	-446
▁yí	-447
▁èyí	-448
09	-449
gbẹ́	-450
▁ohun	-451
ríà	-452
▁rẹ	-453
ari	-454
ẹ̀rẹ̀	-455
▁lórí	-456
mí	-457
rì	-458
▁gẹ́gẹ́	-459
ru	-460
ṣi	-461
lẹ́	-462
▁pà	-463
02	-464
mọ́	-465
yin	-466
▁gbogbo	-467
go	-468
▁àkọ́	-469
85	-470
▁rí	-471
64	-472
ca	-473
▁ìp	-474
▁ki	-475
▁Nàì	-476
kì	-477
fin	-478
fẹ́	-479
ṣà	-480
jọba	-481
ejì	-482
▁Nàìjí	-483
73	-484
▁gbé	-485
kú	-486
▁ala	-487
kàn	-488
▁olù	-489
gbè	-490
▁ta	-491
oro	-492
▁ìgbà	-493
be	-494
rẹ	-495
▁la	-496
dì	-497
▁mọ́	-498
▁Af	-499
▁h	-500
kè	-501
rá	-502
run	-503
lè	-504
pin	-505
▁Ba	-506
▁Ch	-507
▁ma	-508
91	-509
dín	-510
▁Nàìjíríà	-511
gbó	-512
sẹ̀	-513
▁Yor	-514
gbọ́n	-515
▁nígbà	-516
▁Am	-517
tàn	-518
ou	-519
pọ	-520
ede	-521
tan	-522
▁nípa	-523
ation	-524
).	-525
sàn	-526
▁àrùn	-527
pé	-528
eji	-529
kùn	-530
▁In	-531
ẹ́ẹ̀	-532
pò	-533
arí	-534
áde	-535
82	-536
ver	-537
▁wí	-538
▁Wọ́n	-539
óò	-540
01	-541
fa	-542
52	-543
▁mú	-544
ber	-545
▁olu	-546
▁òṣè	-547
▁c	-548
sa	-549
wọ	-550
▁oni	-551
74	-552
▁fí	-553
▁in	-554
▁mi	-555
▁tun	-556
mù	-557
vi	-558
76	-559
ed	-560
ká	-561
ard	-562
34	-563
▁ipa	-564
wọ̀	-565
▁jù	-566
36	-567
▁V	-568
▁ju	-569
wu	-570
▁orin	-571
rìn	-572
rúkọ	-573
nà	-574
su	-575
tun	-576
lò	-577
ùbá	-578
rọ	-579
bìn	-580
▁lẹ́	-581
ve	-582
▁so	-583
mú	-584
▁pè	-585
▁ibi	-586
má	-587
▁Mo	-588
▁gbà	-589
▁ètò	-590
▁kópa	-591
sh	-592
sá	-593
▁Yorùbá	-594
yá	-595
dọ̀	-596
nd	-597
hùn	-598
▁ẹ̀kọ́	-599
▁méjì	-600
bìnrin	-601
at	-602
▁Lá	-603
▁mo	-604
fà	-605
st	-606
▁àì	-607
dú	-608
fe	-609
▁bẹ̀rẹ̀	-610
and	-611
gbò	-612
▁nínu	-613
ci	-614
ón	-615
gùn	-616
jẹ̀	-617
tọ̀	-618
▁bíi	-619
oo	-620
ent	-621
tọ́	-622
bẹ̀	-623
▁Uni	-624
▁Afri	-625
50	-626
80	-627
▁Nig	-628
▁ẹni	-629
▁odun	-630
▁á	-631
▁Ẹ̀	-632
kẹ́	-633
rè	-634
▁lé	-635
bú	-636
fo	-637
ul	-638
▁eni	-639
pi	-640
▁The	-641
▁ise	-642
81	-643
21	-644
rà	-645
▁lára	-646
ck	-647
bẹ́	-648
ine	-649
▁kú	-650
▁omo	-651
fá	-652
sù	-653
59	-654
bò	-655
▁dí	-656
ṣẹ̀	-657
),	-658
ary	-659
iṣẹ́	-660
▁ìdí	-661
▁kọ́	-662
▁orile	-663
89	-664
▁un	-665
▁òṣèré	-666
tó	-667
▁mí	-668
▁olo	-669
tọ	-670
▁da	-671
▁de	-672
▁láà	-673
29	-674
oni	-675
gu	-676
51	-677
ínlẹ̀	-678
sà	-679
ana	-680
▁ẹgbẹ́	-681
et	-682
tion	-683
▁yóò	-684
yo	-685
▁dé	-686
▁ìwé	-687
▁197	-688
▁tabi	-689
▁bẹ́ẹ̀	-690
rín	-691
lógún	-692
▁pẹ	-693
dó	-694
ina	-695
rán	-696
▁ojú	-697
▁sini	-698
▁La	-699
▁lori	-700
gh	-701
dù	-702
rù	-703
san	-704
▁mu	-705
ríkà	-706
▁òun	-707
▁orúkọ	-708
▁An	-709
▁Ilé	-710
▁àṣẹ	-711
kí	-712
▁Ṣ	-713
sìn	-714
▁nipa	-715
▁33	-716
▁36	-717
▁fẹ́	-718
ùgbọ́n	-719
gbẹ̀	-720
▁Nigeri	-721
▁níbi	-722
ìmù	-723
▁í	-724
▁ké	-725
▁196	-726
▁àgbé	-727
ha	-728
kù	-729
ẹ̀kọ́	-730
▁ìmọ̀	-731
▁ọ̀pá	-732
ne	-733
▁gi	-734
▁tẹ	-735
▁ṣí	-736
▁ọdun	-737
rẹ́	-738
▁mọ	-739
ct	-740
▁93	-741
▁kejì	-742
▁37	-743
▁àkọ́kọ́	-744
▁67	-745
▁Àmì	-746
▁‘	-747
son	-748
▁àkó	-749
um	-750
▁47	-751
▁97	-752
▁Sa	-753
▁ri	-754
era	-755
fun	-756
fẹ̀	-757
ria	-758
▁43	-759
▁57	-760
▁aṣ	-761
▁sílẹ̀	-762
▁ìjọba	-763
hi	-764
▁53	-765
▁77	-766
arin	-767
▁Orí	-768
gbọ̀n	-769
▁jáde	-770
▁46	-771
▁Bo	-772
▁naa	-773
▁àwon	-774
▁“	-775
▁56	-776
▁Le	-777
wájú	-778
versi	-779
dọ́	-780
▁De	-781
▁Jo	-782
▁ako	-783
▁and	-784
▁igba	-785
▁ogun	-786
▁ọ̀rọ̀	-787
fí	-788
rún	-789
▁Re	-790
ward	-791
▁Z	-792
▁63	-793
▁ìtàn	-794
han	-795
▁83	-796
dò	-797
ho	-798
ẹrẹ	-799
▁ka	-800
orun	-801
▁ilu	-802
▁mìí	-803
▁73	-804
▁87	-805
▁Lẹ́	-806
kọ̀ọ́	-807
ly	-808
▁ib	-809
yàwó	-810
▁wípé	-811
▁fíìmù	-812
me	-813
▁34	-814
▁44	-815
▁66	-816
▁ọ̀pọ̀	-817
▁96	-818
versity	-819
sọ	-820
▁ayé	-821
▁jùlọ	-822
sẹ	-823
▁64	-824
▁76	-825
▁86	-826
▁bà	-827
▁agbe	-828
▁gbajú	-829
▁Se	-830
▁gí	-831
▁Alá	-832
▁Oló	-833
gbẹ	-834
sin	-835
▁54	-836
▁Awọn	-837
já	-838
are	-839
▁ṣà	-840
lọpọ̀	-841
▁pẹlu	-842
▁mìíràn	-843
ir	-844
▁te	-845
▁àà	-846
▁ìdá	-847
sílẹ̀	-848
ọ̀rọ̀	-849
▁University	-850
co	-851
▁84	-852
▁Ak	-853
▁ká	-854
▁àmì	-855
pè	-856
▁94	-857
▁na	-858
gbon	-859
▁Ile	-860
▁ere	-861
▁iye	-862
▁pelu	-863
▁74	-864
▁Ro	-865
darí	-866
torí	-867
ròyìn	-868
ts	-869
▁Mar	-870
▁pọ̀	-871
▁eniyan	-872
hin	-873
jẹ́	-874
▁Al	-875
▁fa	-876
uni	-877
▁sá	-878
▁ìgbé	-879
ad	-880
▁Nai	-881
▁wón	-882
▁àkọ́lé	-883
man	-884
tún	-885
▁nì	-886
▁the	-887
▁dara	-888
▁sinimá	-889
gé	-890
▁Li	-891
▁akọ	-892
▁maa	-893
aye	-894
gan	-895
▁Adé	-896
▁Award	-897
▁Pa	-898
▁So	-899
▁wo	-900
▁eyi	-901
▁Òun	-902
▁Nigeria	-903
▁Bí	-904
tàkì	-905
▁tẹ̀	-906
jò	-907
lí	-908
yọ	-909
gọ́	-910
hàn	-911
▁kẹ́	-912
uru	-913
mò	-914
wù	-915
▁omi	-916
kùnrin	-917
▁dú	-918
▁kì	-919
▁Ìp	-920
▁Co	-921
▁idi	-922
gbara	-923
gó	-924
àá	-925
▁194	-926
sè	-927
tẹ	-928
ege	-929
▁Mi	-930
▁ja	-931
wọ̀n	-932
▁Sch	-933
▁wọ	-934
▁mọ̀	-935
▁Awon	-936
▁wáyé	-937
uro	-938
▁38	-939
▁Bá	-940
▁bo	-941
▁inú	-942
jiria	-943
▁pàtàkì	-944
000	-945
▁Te	-946
▁Ade	-947
▁dára	-948
▁padà	-949
▁Ameri	-950
pu	-951
▁Di	-952
▁Kẹ	-953
▁Pe	-954
▁mẹ	-955
▁yà	-956
res	-957
sti	-958
jáde	-959
▁ṣiṣẹ́	-960
▁lọ́dún	-961
▁ṣùgbọ́n	-962
din	-963
my	-964
can	-965
▁30	-966
sára	-967
▁gbe	-968
ew	-969
ké	-970
▁58	-971
▁Ka	-972
▁apa	-973
▁obìnrin	-974
▁Naijiria	-975
▁gbajúmọ̀	-976
tá	-977
ers	-978
ool	-979
▁Ra	-980
▁193	-981
ali	-982
bin	-983
hìn	-984
tẹ̀	-985
▁35	-986
▁be	-987
▁àgbà	-988
▁Mu	-989
pele	-990
▁Nígbà	-991
bó	-992
bẹ	-993
jó	-994
kẹ	-995
dan	-996
ojú	-997
ust	-998
léwò	-999
▁àìsàn	-1000
les	-1001
ted	-1002
yìí	-1003
yẹ̀	-1004
▁68	-1005
gbọn	-1006
òrùn	-1007
▁Ọba	-1008
kún	-1009
▁48	-1010
▁88	-1011
▁95	-1012
▁Bi	-1013
▁iṣ	-1014
▁ayẹ	-1015
▁ida	-1016
kiri	-1017
▁gbó	-1018
▁ọba	-1019
▁pata	-1020
jẹsára	-1021
pó	-1022
úpọ̀	-1023
▁Ala	-1024
▁ará	-1025
▁Èkó	-1026
▁gíga	-1027
ry	-1028
tú	-1029
▁45	-1030
▁55	-1031
▁65	-1032
▁98	-1033
▁Ar	-1034
▁ke	-1035
tern	-1036
▁kẹta	-1037
té	-1038
▁é	-1039
bọ̀	-1040
▁75	-1041
▁78	-1042
▁85	-1043
▁Da	-1044
▁jọ	-1045
▁lò	-1046
▁wi	-1047
ment	-1048
tori	-1049
▁Ti	-1050
▁sa	-1051
▁iṣẹ	-1052
dínlógún	-1053
mó	-1054
ph	-1055
eje	-1056
▁li	-1057
arun	-1058
▁owó	-1059
▁ọ̀pọ̀lọpọ̀	-1060
dọ	-1061
sé	-1062
▁Á	-1063
dia	-1064
usu	-1065
▁40	-1066
erin	-1067
mber	-1068
▁ojo	-1069
▁ìṣẹ̀	-1070
▁ṣíṣe	-1071
binrin	-1072
▁Ko	-1073
▁No	-1074
ọ̀kan	-1075
▁2014	-1076
▁ọ̀nà	-1077
gbègbè	-1078
▁Africa	-1079
sia	-1080
▁Be	-1081
▁St	-1082
▁Com	-1083
▁2015	-1084
▁agba	-1085
▁títí	-1086
gí	-1087
pẹ	-1088
imu	-1089
▁Lo	-1090
gbọ́	-1091
▁ipò	-1092
▁meji	-1093
▁ọ̀kan	-1094
ational	-1095
▁àgbéléwò	-1096
qu	-1097
sun	-1098
íní	-1099
▁àá	-1100
▁ìf	-1101
kejì	-1102
sion	-1103
▁Con	-1104
▁School	-1105
▁lẹ́yìn	-1106
▁ìpínlẹ̀	-1107
▁50	-1108
▁Ab	-1109
▁Si	-1110
▁183	-1111
▁Olú	-1112
▁Lẹ́yìn	-1113
▁lọ́wọ́	-1114
▁nítorí	-1115
lan	-1116
▁Me	-1117
▁rè	-1118
joba	-1119
▁Ìjẹ̀	-1120
dínlọ́	-1121
fu	-1122
tt	-1123
gbi	-1124
ond	-1125
one	-1126
▁Ri	-1127
▁dà	-1128
ríṣi	-1129
ẹ̀ẹ́	-1130
▁iwe	-1131
▁2010	-1132
▁wọ̀n	-1133
▁ẹlẹ́	-1134
▁kọ́kọ́	-1135
bì	-1136
bọ	-1137
▁-	-1138
▁En	-1139
gbára	-1140
▁fara	-1141
▁gbọ́	-1142
▁pataki	-1143
zi	-1144
▁187	-1145
▁Col	-1146
▁irú	-1147
só	-1148
▁tì	-1149
ọ̀nù	-1150
▁177	-1151
▁yii	-1152
▁Èyí	-1153
▁ìgb	-1154
▁2013	-1155
▁Ja	-1156
▁Kò	-1157
▁ai	-1158
▁ìl	-1159
▁186	-1160
▁ìbá	-1161
est	-1162
▁To	-1163
orin	-1164
▁184	-1165
▁Olu	-1166
▁elé	-1167
gbáyé	-1168
▁2019	-1169
▁gege	-1170
▁ọlọ́	-1171
fẹ	-1172
gy	-1173
for	-1174
ínú	-1175
▁29	-1176
▁Gu	-1177
koso	-1178
▁117	-1179
▁oko	-1180
dẹ	-1181
od	-1182
dùn	-1183
ham	-1184
▁70	-1185
sìkò	-1186
▁107	-1187
▁Ben	-1188
▁opo	-1189
papọ̀	-1190
▁ẹ̀yà	-1191
▁Ìpínlẹ̀	-1192
tic	-1193
ájú	-1194
▁dì	-1195
▁lẹ	-1196
▁163	-1197
▁yan	-1198
▁2012	-1199
▁ayẹyẹ	-1200
▁fiimu	-1201
▁gboyè	-1202
no	-1203
per	-1204
kòrò	-1205
ẹ̀yẹ	-1206
▁137	-1207
▁267	-1208
▁ipo	-1209
▁oju	-1210
▁ìyá	-1211
▁ẹ̀yẹ	-1212
ls	-1213
▁jé	-1214
▁153	-1215
▁ele	-1216
▁2016	-1217
▁egbe	-1218
bẹ̀rẹ̀	-1219
▁mẹ́ta	-1220
em	-1221
èrè	-1222
▁60	-1223
▁80	-1224
▁90	-1225
▁113	-1226
▁127	-1227
▁176	-1228
▁207	-1229
▁213	-1230
▁233	-1231
▁247	-1232
▁kọ̀	-1233
▁bàbá	-1234
ẹ́ríkà	-1235
".	-1236
ero	-1237
pẹ́	-1238
ìwé	-1239
▁fì	-1240
▁106	-1241
▁126	-1242
▁133	-1243
▁143	-1244
▁147	-1245
▁167	-1246
▁173	-1247
▁2017	-1248
▁ipin	-1249
jù	-1250
ll	-1251
òó	-1252
ṣò	-1253
▁Fa	-1254
▁kà	-1255
wùjọ	-1256
▁103	-1257
▁123	-1258
▁157	-1259
▁217	-1260
▁227	-1261
▁237	-1262
▁257	-1263
▁277	-1264
▁Lọ́	-1265
▁2020	-1266
▁àjẹsára	-1267
bé	-1268
va	-1269
anu	-1270
eré	-1271
▁Vi	-1272
land	-1273
▁116	-1274
▁156	-1275
▁203	-1276
▁223	-1277
▁243	-1278
▁253	-1279
▁263	-1280
▁273	-1281
▁283	-1282
▁Oba	-1283
▁hàn	-1284
▁nigba	-1285
mìn	-1286
▁là	-1287
▁pá	-1288
eral	-1289
sile	-1290
ọ́ọ̀	-1291
▁104	-1292
▁114	-1293
▁136	-1294
▁164	-1295
▁226	-1296
▁236	-1297
▁256	-1298
▁oru	-1299
▁osu	-1300
▁abẹ́	-1301
▁tẹli	-1302
wi	-1303
jọ̀	-1304
ona	-1305
ora	-1306
▁Ca	-1307
▁me	-1308
▁146	-1309
▁154	-1310
▁166	-1311
▁tẹ́	-1312
▁àdú	-1313
wòrán	-1314
bù	-1315
jé	-1316
yì	-1317
den	-1318
dio	-1319
ore	-1320
uba	-1321
yọ̀	-1322
▁Na	-1323
selu	-1324
waju	-1325
▁144	-1326
▁206	-1327
▁216	-1328
▁246	-1329
▁266	-1330
▁276	-1331
yẹ̀wò	-1332
▁Ipin	-1333
▁wọ̀nyí	-1334
ná	-1335
▁ol	-1336
▁ṣi	-1337
dara	-1338
▁124	-1339
▁174	-1340
▁254	-1341
▁ede	-1342
▁oun	-1343
▁2018	-1344
▁baba	-1345
▁ìyàwó	-1346
▁Awards	-1347
▁nitori	-1348
ub	-1349
200	-1350
jin	-1351
▁já	-1352
▁wò	-1353
▁284	-1354
▁oyè	-1355
▁igbe	-1356
▁òfin	-1357
ṣiríṣi	-1358
gá	-1359
▁Po	-1360
▁po	-1361
▁ọ́	-1362
tàgé	-1363
▁134	-1364
▁204	-1365
▁214	-1366
▁224	-1367
▁234	-1368
▁244	-1369
▁264	-1370
▁274	-1371
lóhùn	-1372
ron	-1373
▁Th	-1374
▁Pro	-1375
▁Sta	-1376
▁kẹrin	-1377
jè	-1378
-19	-1379
fíṣ	-1380
▁Au	-1381
▁ṣa	-1382
risi	-1383
ǹkan	-1384
▁Oṣù	-1385
▁eto	-1386
▁2009	-1387
▁Ogun	-1388
fẹ́fẹ́	-1389
▁kọkàn	-1390
▁mẹ́rìn	-1391
▁Amẹ́ríkà	-1392
mà	-1393
dìí	-1394
dẹ́	-1395
sẹ́	-1396
sọ̀	-1397
ànà	-1398
▁Do	-1399
▁ak	-1400
▁lí	-1401
▁ọn	-1402
▁Ban	-1403
▁inu	-1404
▁dúró	-1405
▁nkan	-1406
gẹ	-1407
ṣì	-1408
▁Q	-1409
len	-1410
mar	-1411
▁42	-1412
▁Fe	-1413
▁ap	-1414
▁on	-1415
▁ìbí	-1416
▁Yuni	-1417
▁aláì	-1418
▁tuntun	-1419
ama	-1420
dàn	-1421
▁32	-1422
,000	-1423
ongo	-1424
logun	-1425
▁2007	-1426
▁2011	-1427
▁ọwọ́	-1428
▁akoko	-1429
▁laarin	-1430
▁àdúgbò	-1431
▁ìṣẹ̀lẹ̀	-1432
▁ku	-1433
pọlọ	-1434
▁100	-1435
▁New	-1436
▁olú	-1437
▁pín	-1438
fihàn	-1439
lom	-1440
▁Ge	-1441
▁gan	-1442
▁gbi	-1443
▁gbá	-1444
▁ọgọ́	-1445
ṣu	-1446
sán	-1447
und	-1448
▁As	-1449
▁Ki	-1450
▁Su	-1451
▁an	-1452
▁só	-1453
outh	-1454
▁Par	-1455
▁yàn	-1456
▁míràn	-1457
▁ìròyìn	-1458
▁African	-1459
lì	-1460
wì	-1461
wú	-1462
▁Ho	-1463
▁Jé	-1464
▁su	-1465
▁ya	-1466
oran	-1467
▁apá	-1468
▁kúrò	-1469
▁Colle	-1470
▁Amerika	-1471
ṣo	-1472
ley	-1473
tẹ́	-1474
▁31	-1475
▁Lu	-1476
▁tú	-1477
rìṣà	-1478
▁Nínú	-1479
▁agbegbe	-1480
ut	-1481
chi	-1482
ris	-1483
▁39	-1484
▁49	-1485
▁Ha	-1486
▁He	-1487
▁(19	-1488
▁Eré	-1489
▁afi	-1490
▁aye	-1491
▁for	-1492
▁rán	-1493
▁ìwá	-1494
▁ọjọ	-1495
▁ọkọ	-1496
kálẹ̀	-1497
▁2006	-1498
▁Ọjọ́	-1499
▁ẹ̀sìn	-1500
lélógún	-1501
▁àgbáyé	-1502
yò	-1503
bon	-1504
bùn	-1505
▁pí	-1506
▁ún	-1507
logy	-1508
ters	-1509
▁iba	-1510
▁Òkè	-1511
▁òkè	-1512
▁ìdíje	-1513
▁òṣèlú	-1514
▁agbègbè	-1515
dínlọ́gbọ̀n	-1516
gì	-1517
oju	-1518
ola	-1519
▁62	-1520
▁Fi	-1521
▁Is	-1522
▁bó	-1523
dani	-1524
▁Chi	-1525
▁káà	-1526
▁pàá	-1527
▁àjọ	-1528
▁ìwà	-1529
▁2008	-1530
▁Jésù	-1531
▁díẹ̀	-1532
▁lábẹ́	-1533
▁nǹkan	-1534
▁agbara	-1535
▁láàrin	-1536
▁College	-1537
cy	-1538
ṣọ	-1539
dán	-1540
jìn	-1541
ẹni	-1542
▁Wi	-1543
julo	-1544
lopo	-1545
▁Gbo	-1546
▁Ori	-1547
▁iya	-1548
▁Aare	-1549
▁olóò	-1550
▁sise	-1551
▁adarí	-1552
hn	-1553
nú	-1554
pà	-1555
za	-1556
▁'	-1557
àní	-1558
▁jo	-1559
lowo	-1560
▁gbí	-1561
▁imo	-1562
▁Ìbà	-1563
▁àṣà	-1564
▁Fran	-1565
▁titi	-1566
▁ijọba	-1567
▁púpọ̀	-1568
▁Ìjẹ̀bú	-1569
▁tẹlifíṣ	-1570
▁gbólóhùn	-1571
▁–	-1572
min	-1573
▁Ke	-1574
▁Wa	-1575
▁ṣẹ	-1576
▁Odù	-1577
▁kàn	-1578
▁yoo	-1579
▁Ọdún	-1580
ederal	-1581
ọ́ọ̀lù	-1582
▁Bákan	-1583
▁miran	-1584
▁olórí	-1585
▁kòkòrò	-1586
kẹ́kọ̀ọ́	-1587
bè	-1588
ds	-1589
ss	-1590
bia	-1591
▁Bà	-1592
▁Qu	-1593
▁Tí	-1594
▁ro	-1595
▁yẹ	-1596
dari	-1597
illi	-1598
rika	-1599
ògùn	-1600
▁118	-1601
▁Man	-1602
▁pẹ́	-1603
▁Ìlú	-1604
▁ìwò	-1605
▁òbí	-1606
▁òní	-1607
▁Intern	-1608
▁mẹ́rin	-1609
op	-1610
der	-1611
ene	-1612
ist	-1613
val	-1614
úsù	-1615
ṣìí	-1616
▁72	-1617
▁82	-1618
▁Ta	-1619
▁jí	-1620
ress	-1621
ìmọ̀	-1622
▁àkọ	-1623
▁Ọmọ	-1624
▁gidi	-1625
▁giga	-1626
ẹ̀ẹ́sì	-1627
▁márùn	-1628
▁ìdílé	-1629
▁ọpọlọ	-1630
▁onímọ̀	-1631
",	-1632
tù	-1633
ise	-1634
ton	-1635
▁52	-1636
▁59	-1637
▁ab	-1638
▁ji	-1639
▁pi	-1640
▁rá	-1641
▁tọ	-1642
▁Àà	-1643
cade	-1644
duwà	-1645
koro	-1646
áájú	-1647
▁èrò	-1648
▁Akin	-1649
lọ́wọ́	-1650
▁olùdarí	-1651
kòó	-1652
pan	-1653
pàá	-1654
▁Go	-1655
▁ga	-1656
▁sìn	-1657
▁ìjà	-1658
▁itan	-1659
▁àkókò	-1660
▁àwùjọ	-1661
gò	-1662
aro	-1663
yán	-1664
▁69	-1665
▁79	-1666
▁92	-1667
▁af	-1668
▁fẹ	-1669
▁kù	-1670
aran	-1671
esti	-1672
sítì	-1673
ture	-1674
▁128	-1675
▁198	-1676
▁bẹ́	-1677
▁eko	-1678
▁pin	-1679
▁ńlá	-1680
▁ẹbí	-1681
stitu	-1682
▁Ohun	-1683
▁keje	-1684
cademy	-1685
▁kalẹ̀	-1686
▁oruko	-1687
▁yàtọ̀	-1688
▁obinrin	-1689
tal	-1690
wàá	-1691
▁On	-1692
▁ẹ́	-1693
ence	-1694
làyé	-1695
ogun	-1696
rere	-1697
ìyàn	-1698
▁125	-1699
▁138	-1700
▁148	-1701
▁158	-1702
▁175	-1703
▁238	-1704
▁258	-1705
▁Fil	-1706
▁igi	-1707
▁wọ́	-1708
▁ìdà	-1709
▁Agba	-1710
▁kéde	-1711
▁ofin	-1712
síwájú	-1713
ID	-1714
ld	-1715
ps	-1716
wn	-1717
ṣí	-1718
▁;	-1719
bun	-1720
ram	-1721
ẹgẹ	-1722
▁89	-1723
▁99	-1724
▁108	-1725
▁155	-1726
▁178	-1727
▁185	-1728
▁188	-1729
▁195	-1730
▁218	-1731
▁228	-1732
▁235	-1733
▁268	-1734
▁278	-1735
▁aya	-1736
▁igb	-1737
▁ran	-1738
▁2005	-1739
▁John	-1740
▁mẹta	-1741
▁ẹran	-1742
▁South	-1743
▁gbaju	-1744
▁Academy	-1745
lọ̀	-1746
rọ́	-1747
sis	-1748
wan	-1749
yọ́	-1750
ìkì	-1751
ọlá	-1752
▁èè	-1753
kìtì	-1754
nira	-1755
pọ́n	-1756
▁105	-1757
▁115	-1758
▁168	-1759
▁208	-1760
▁248	-1761
▁Bro	-1762
▁For	-1763
▁iru	-1764
▁iwa	-1765
▁Ọlá	-1766
inira	-1767
▁Film	-1768
▁mẹ́fà	-1769
▁orilẹ	-1770
▁ìbílẹ̀	-1771
▁kẹ́kọ̀ọ́	-1772
pí	-1773
iṣẹ	-1774
ong	-1775
sùn	-1776
tes	-1777
ven	-1778
yẹ́	-1779
▁Je	-1780
▁al	-1781
▁ra	-1782
isan	-1783
▁135	-1784
▁145	-1785
▁200	-1786
▁225	-1787
▁Fun	-1788
▁aso	-1789
▁ìṣè	-1790
ction	-1791
kọ̀wé	-1792
▁bere	-1793
▁kẹfà	-1794
▁múlẹ̀	-1795
▁mẹ́tà	-1796
▁ọ̀dọ̀	-1797
au	-1798
ast	-1799
ban	-1800
int	-1801
lin	-1802
▁dó	-1803
▁fe	-1804
▁mó	-1805
ctor	-1806
kere	-1807
tain	-1808
tàrí	-1809
▁165	-1810
▁205	-1811
▁215	-1812
▁245	-1813
▁255	-1814
▁265	-1815
▁275	-1816
▁285	-1817
▁ifi	-1818
▁oro	-1819
kanna	-1820
pẹẹrẹ	-1821
▁Láti	-1822
▁irin	-1823
▁Ọlọ́	-1824
fásítì	-1825
kunrin	-1826
▁ijoba	-1827
▁Gbogbo	-1828
▁láàrín	-1829
▁káàkiri	-1830
▁International	-1831
ff	-1832
cha	-1833
gos	-1834
èjì	-1835
▁Ap	-1836
▁Gi	-1837
▁is	-1838
Ifẹ̀	-1839
kowe	-1840
ẹ̀ṣà	-1841
▁Eng	-1842
▁Iye	-1843
▁Kan	-1844
▁Kar	-1845
▁Won	-1846
▁ero	-1847
▁ìṣe	-1848
▁tele	-1849
▁ẹ̀rọ	-1850
▁ìtàgé	-1851
▁lórílẹ̀	-1852
tè	-1853
ys	-1854
▁v	-1855
fún	-1856
igh	-1857
lia	-1858
lic	-1859
tán	-1860
▁Fá	-1861
▁pu	-1862
▁yá	-1863
ríwá	-1864
▁286	-1865
▁ari	-1866
▁awo	-1867
▁ibù	-1868
▁kar	-1869
▁owo	-1870
▁ṣẹ̀	-1871
▁ọna	-1872
tọ́jú	-1873
▁Lati	-1874
▁Ìtàn	-1875
▁síwájú	-1876
▁tẹ́lẹ̀	-1877
▁Odùduwà	-1878
fò	-1879
low	-1880
omi	-1881
ory	-1882
ral	-1883
▁Ad	-1884
▁Ju	-1885
▁fọ	-1886
▁if	-1887
fasi	-1888
lebu	-1889
ther	-1890
wọ́n	-1891
▁Abu	-1892
▁Ada	-1893
▁ìlà	-1894
▁òṣì	-1895
ondon	-1896
▁Baba	-1897
▁iran	-1898
▁jade	-1899
▁kẹtà	-1900
▁leyin	-1901
▁Ọ̀pọ̀	-1902
dásílẹ̀	-1903
estival	-1904
▁sọ̀rọ̀	-1905
▁Ìbàdàn	-1906
▁oloselu	-1907
all	-1908
kán	-1909
shi	-1910
▁bẹ	-1911
▁tu	-1912
keji	-1913
kúta	-1914
marè	-1915
soke	-1916
tele	-1917
wood	-1918
▁150	-1919
▁Iba	-1920
▁Olo	-1921
▁Olù	-1922
▁Pri	-1923
▁láì	-1924
▁tọ́	-1925
▁Ìdí	-1926
▁ìjọ	-1927
míràn	-1928
royin	-1929
▁julọ	-1930
▁keji	-1931
▁lóri	-1932
▁wipe	-1933
▁àtún	-1934
gbóhùn	-1935
▁ìlànà	-1936
▁Ẹ̀gbá	-1937
▁Gẹ́gẹ́	-1938
▁nipasẹ	-1939
▁Federal	-1940
sò	-1941
ami	-1942
art	-1943
cal	-1944
ity	-1945
lam	-1946
lla	-1947
thi	-1948
▁ṣo	-1949
dìbò	-1950
joko	-1951
kóso	-1952
ọ́lá	-1953
▁170	-1954
▁May	-1955
▁Wor	-1956
▁kìí	-1957
▁yio	-1958
▁Àjà	-1959
▁ṣẹ́	-1960
▁ẹnu	-1961
oòrùn	-1962
▁gẹgẹ	-1963
▁ogún	-1964
▁pada	-1965
▁parí	-1966
▁ìpín	-1967
▁ẹgbẹ	-1968
▁ipele	-1969
▁ọmọdé	-1970
▁Afrika	-1971
▁kankan	-1972
▁Institu	-1973
ny	-1974
ṣa	-1975
ade	-1976
alẹ	-1977
iwe	-1978
láà	-1979
ura	-1980
vie	-1981
yún	-1982
▁Bu	-1983
▁Em	-1984
▁ṣè	-1985
kiti	-1986
meji	-1987
pada	-1988
rama	-1989
▁Ken	-1990
▁agb	-1991
▁sẹ́	-1992
dínló	-1993
▁1990	-1994
▁1995	-1995
▁ikan	-1996
▁kàwé	-1997
▁méjè	-1998
▁ẹ̀ka	-1999
anuary	-2000
dùmarè	-2001
mìnira	-2002
▁akọkọ	-2003
▁London	-2004
▁Nigerian	-2005
oi	-2006
eju	-2007
eni	-2008
ess	-2009
ibi	-2010
kin	-2011
por	-2012
▁Ex	-2013
▁Kí	-2014
▁tá	-2015
▁Áf	-2016
búrò	-2017
padà	-2018
úúsù	-2019
▁110	-2020
▁250	-2021
▁Har	-2022
▁Wọn	-2023
▁odo	-2024
▁àfi	-2025
▁àjà	-2026
▁ìyí	-2027
gbati	-2028
▁Aust	-2029
▁lowo	-2030
▁Ìjọba	-2031
▁òrìṣà	-2032
▁Yoruba	-2033
▁àpapọ̀	-2034
▁abẹ́rẹ́	-2035
▁ọkùnrin	-2036
▁Festival	-2037
cs	-2038
cu	-2039
kẹ̀	-2040
▁os	-2041
juto	-2042
▁120	-2043
▁Bar	-2044
▁abo	-2045
▁wọ̀	-2046
pamọ́	-2047
▁2003	-2048
▁King	-2049
▁agbá	-2050
▁darí	-2051
▁Ààrẹ	-2052
▁ọkọ̀	-2053
ations	-2054
▁2015,	-2055
▁larin	-2056
▁orisi	-2057
▁Ipinle	-2058
▁Gẹ̀ẹ́sì	-2059
ala	-2060
las	-2061
ree	-2062
une	-2063
▁Ya	-2064
▁fá	-2065
ania	-2066
fowó	-2067
iran	-2068
yèsí	-2069
▁130	-2070
▁160	-2071
▁230	-2072
▁280	-2073
▁Bas	-2074
▁Fún	-2075
▁ami	-2076
▁asa	-2077
▁dín	-2078
▁ifá	-2079
▁iso	-2080
▁sun	-2081
lélọ́	-2082
▁fìdí	-2083
▁nílé	-2084
▁Ògún	-2085
▁ìrìn	-2086
▁United	-2087
▁aláwọ̀	-2088
▁miiran	-2089
▁pàápàá	-2090
▁wọ́pọ̀	-2091
▁Áfríkà	-2092
▁àyẹ̀wò	-2093
sáfẹ́fẹ́	-2094
▁darapọ̀	-2095
▁gbajumo	-2096
▁)	-2097
bra	-2098
cto	-2099
ght	-2100
ṣin	-2101
▁Fo	-2102
▁Sh	-2103
▁as	-2104
▁fo	-2105
▁fà	-2106
▁ye	-2107
lọwọ	-2108
olly	-2109
▁140	-2110
▁Omo	-2111
▁San	-2112
▁awu	-2113
▁aṣọ	-2114
▁imu	-2115
▁tán	-2116
▁Èdè	-2117
▁ẹnì	-2118
kalẹ̀	-2119
▁2000	-2120
▁2004	-2121
▁nibi	-2122
▁níbẹ̀	-2123
▁tilẹ̀	-2124
▁àsìkò	-2125
▁ẹgbẹ̀	-2126
▁Ọ̀yọ́	-2127
▁Lẹ́hìn	-2128
▁látàrí	-2129
▁mọ́kàn	-2130
▁òṣìṣẹ́	-2131
▁gbọ́dọ̀	-2132
▁oríṣiríṣi	-2133
mé	-2134
pù	-2135
ww	-2136
bel	-2137
fín	-2138
sen	-2139
van	-2140
▁Ká	-2141
▁Ne	-2142
▁Sí	-2143
chel	-2144
fowo	-2145
keré	-2146
koko	-2147
ọ́nà	-2148
▁180	-2149
▁190	-2150
▁210	-2151
▁220	-2152
▁240	-2153
▁260	-2154
▁270	-2155
▁Bel	-2156
▁Bra	-2157
▁Bri	-2158
▁Mis	-2159
▁Osu	-2160
▁ase	-2161
▁iku	-2162
▁tan	-2163
▁ọrọ	-2164
jọpọ̀	-2165
▁1998	-2166
▁Lára	-2167
▁Tele	-2168
▁igbá	-2169
▁lilo	-2170
▁méje	-2171
▁teli	-2172
▁ìwọ̀	-2173
siwaju	-2174
▁India	-2175
▁nìkan	-2176
▁èèyàn	-2177
▁ìlera	-2178
▁olóòtú	-2179
▁agbelebu	-2180
//	-2181
OV	-2182
fú	-2183
ze	-2184
ṣé	-2185
”.	-2186
://	-2187
che	-2188
con	-2189
tra	-2190
vid	-2191
ṣọ́	-2192
▁41	-2193
▁Ag	-2194
▁Ru	-2195
▁bu	-2196
▁jà	-2197
▁án	-2198
enti	-2199
eria	-2200
lack	-2201
omba	-2202
papo	-2203
siko	-2204
▁Abi	-2205
▁Oni	-2206
▁atọ	-2207
▁fẹ̀	-2208
▁gbè	-2209
▁htt	-2210
▁Ìwé	-2211
▁ìṣà	-2212
gbimọ	-2213
▁1986	-2214
▁Ifẹ̀	-2215
▁bíbí	-2216
▁láyé	-2217
▁2012,	-2218
▁bákan	-2219
▁ounjẹ	-2220
▁ìwọ̀n	-2221
▁ẹ̀bùn	-2222
▁agbára	-2223
▁January	-2224
▁olùdásílẹ̀	-2225
▁tẹlifíṣọ̀nù	-2226
0.	-2227
dy	-2228
bàá	-2229
olu	-2230
rea	-2231
▁Sà	-2232
▁am	-2233
▁yọ	-2234
duro	-2235
gójì	-2236
lówó	-2237
tage	-2238
tọju	-2239
usin	-2240
únjẹ	-2241
ṣèlú	-2242
▁Ali	-2243
▁Bur	-2244
▁Jam	-2245
▁Mon	-2246
▁Oní	-2247
▁ajo	-2248
▁bii	-2249
▁fil	-2250
▁ibu	-2251
▁lai	-2252
▁pro	-2253
dọ́ta	-2254
woran	-2255
▁1987	-2256
▁Kejì	-2257
▁ìkan	-2258
▁ọkan	-2259
▁2017,	-2260
▁báyìí	-2261
▁kẹrìn	-2262
▁olori	-2263
▁Orílẹ̀	-2264
▁olùkọ́	-2265
BC	-2266
gà	-2267
266	-2268
ame	-2269
ker	-2270
lai	-2271
móò	-2272
oly	-2273
onu	-2274
ood	-2275
yín	-2276
ọni	-2277
▁rò	-2278
▁tè	-2279
gust	-2280
ọ́ká	-2281
▁Cam	-2282
▁Idi	-2283
▁aba	-2284
▁ada	-2285
▁ija	-2286
▁kún	-2287
▁oke	-2288
▁Ìyá	-2289
▁òrò	-2290
▁ọjà	-2291
▁Bàbá	-2292
▁ibẹ̀	-2293
▁kéré	-2294
▁láàá	-2295
▁orun	-2296
▁waye	-2297
▁Ìgbà	-2298
▁ẹ̀dá	-2299
móògùn	-2300
vember	-2301
▁2019,	-2302
▁Orúkọ	-2303
▁aṣojú	-2304
▁kìíní	-2305
▁atọkun	-2306
▁ipinle	-2307
▁olórin	-2308
▁oníṣẹ́	-2309
▁ẹranko	-2310
▁America	-2311
▁Ṣùgbọ́n	-2312
▁ọpọlọpọ	-2313
▁ìgbéyàwó	-2314
1.	-2315
TV	-2316
up	-2317
009	-2318
131	-2319
150	-2320
197	-2321
535	-2322
936	-2323
939	-2324
amu	-2325
cor	-2326
ger	-2327
mẹ́	-2328
wẹ̀	-2329
átà	-2330
òrò	-2331
ṣọ̀	-2332
▁We	-2333
furu	-2334
fọ̀n	-2335
lish	-2336
lori	-2337
mìnà	-2338
wárí	-2339
ṣòwò	-2340
ọ́ni	-2341
▁132	-2342
▁Ara	-2343
▁Cor	-2344
▁Eko	-2345
▁Gir	-2346
▁Ibu	-2347
▁Per	-2348
▁She	-2349
▁gbọ	-2350
▁èlò	-2351
▁Igba	-2352
▁akọ́	-2353
▁dúdú	-2354
fasiti	-2355
▁2014,	-2356
▁marun	-2357
▁àgbẹ̀	-2358
▁ìdìbò	-2359
▁ọ̀dọ́	-2360
▁Ibadan	-2361
▁ìwádìí	-2362
▁ìwòsàn	-2363
▁ìgbìmọ̀	-2364
▁November	-2365
wí	-2366
100	-2367
126	-2368
144	-2369
166	-2370
239	-2371
242	-2372
246	-2373
275	-2374
281	-2375
370	-2376
474	-2377
567	-2378
576	-2379
929	-2380
955	-2381
963	-2382
970	-2383
ese	-2384
ges	-2385
gra	-2386
ill	-2387
ksi	-2388
lum	-2389
med	-2390
oba	-2391
ọnu	-2392
▁US	-2393
▁at	-2394
▁ná	-2395
OVID	-2396
gbón	-2397
gidi	-2398
júwe	-2399
kópa	-2400
sókè	-2401
▁142	-2402
▁Eyi	-2403
▁Gol	-2404
▁Ifá	-2405
▁Kẹ́	-2406
▁han	-2407
▁ikú	-2408
▁ona	-2409
▁ẹrú	-2410
angba	-2411
sọ̀rí	-2412
▁Dece	-2413
▁Peop	-2414
▁koko	-2415
▁okun	-2416
▁sínú	-2417
ctober	-2418
jìnlẹ̀	-2419
▁2018,	-2420
▁COVID	-2421
▁osere	-2422
▁oòrùn	-2423
bọ́ọ̀lù	-2424
▁Nítorí	-2425
▁akọrin	-2426
▁gegebi	-2427
▁ológun	-2428
▁ìdàgbà	-2429
▁kọ̀ọ̀kan	-2430
▁àjàkálẹ̀	-2431
▁Institute	-2432
▁Orímóògùn	-2433
gbóhùnsáfẹ́fẹ́	-2434
gọ	-2435
im	-2436
uk	-2437
éè	-2438
032	-2439
074	-2440
129	-2441
148	-2442
159	-2443
161	-2444
167	-2445
170	-2446
183	-2447
184	-2448
193	-2449
194	-2450
237	-2451
238	-2452
247	-2453
256	-2454
267	-2455
270	-2456
284	-2457
360	-2458
430	-2459
440	-2460
550	-2461
666	-2462
667	-2463
731	-2464
773	-2465
838	-2466
852	-2467
921	-2468
922	-2469
930	-2470
931	-2471
932	-2472
933	-2473
934	-2474
935	-2475
937	-2476
938	-2477
940	-2478
941	-2479
942	-2480
943	-2481
944	-2482
945	-2483
946	-2484
947	-2485
948	-2486
949	-2487
960	-2488
961	-2489
962	-2490
964	-2491
965	-2492
966	-2493
967	-2494
968	-2495
969	-2496
971	-2497
972	-2498
973	-2499
974	-2500
975	-2501
976	-2502
977	-2503
978	-2504
979	-2505
991	-2506
999	-2507
ayé	-2508
bíi	-2509
car	-2510
oun	-2511
pẹ̀	-2512
wer	-2513
yen	-2514
ẹkọ	-2515
▁Ph	-2516
▁Pi	-2517
▁Yà	-2518
▁sà	-2519
fojú	-2520
lasi	-2521
sitì	-2522
tive	-2523
▁Del	-2524
▁Mas	-2525
▁Mẹ́	-2526
▁Por	-2527
▁Ser	-2528
▁aro	-2529
▁ewu	-2530
▁obi	-2531
▁ìlé	-2532
▁ìpè	-2533
▁ìta	-2534
▁Soci	-2535
▁arin	-2536
▁atun	-2537
dasile	-2538
▁Movie	-2539
▁State	-2540
▁dàgbà	-2541
▁karùn	-2542
▁nikan	-2543
▁ìpele	-2544
gbasoke	-2545
▁August	-2546
▁kokoro	-2547
▁kékeré	-2548
▁ìtọ́jú	-2549
jọ̀gbọ́n	-2550
lominira	-2551
▁Ibujoko	-2552
▁October	-2553
▁National	-2554
ms	-2555
ue	-2556
021	-2557
029	-2558
085	-2559
104	-2560
124	-2561
132	-2562
136	-2563
139	-2564
140	-2565
145	-2566
152	-2567
160	-2568
178	-2569
185	-2570
221	-2571
222	-2572
229	-2573
230	-2574
231	-2575
232	-2576
233	-2577
234	-2578
235	-2579
236	-2580
240	-2581
241	-2582
243	-2583
244	-2584
245	-2585
248	-2586
249	-2587
250	-2588
251	-2589
252	-2590
253	-2591
254	-2592
255	-2593
257	-2594
258	-2595
259	-2596
260	-2597
261	-2598
262	-2599
263	-2600
264	-2601
265	-2602
268	-2603
269	-2604
271	-2605
272	-2606
273	-2607
274	-2608
276	-2609
277	-2610
278	-2611
279	-2612
280	-2613
282	-2614
283	-2615
285	-2616
286	-2617
287	-2618
288	-2619
289	-2620
330	-2621
331	-2622
332	-2623
333	-2624
334	-2625
335	-2626
336	-2627
337	-2628
338	-2629
339	-2630
340	-2631
341	-2632
342	-2633
345	-2634
348	-2635
349	-2636
361	-2637
362	-2638
365	-2639
368	-2640
369	-2641
371	-2642
372	-2643
373	-2644
374	-2645
375	-2646
376	-2647
378	-2648
379	-2649
431	-2650
432	-2651
433	-2652
434	-2653
435	-2654
436	-2655
437	-2656
438	-2657
439	-2658
441	-2659
442	-2660
444	-2661
445	-2662
448	-2663
449	-2664
460	-2665
461	-2666
462	-2667
463	-2668
464	-2669
465	-2670
466	-2671
467	-2672
468	-2673
469	-2674
470	-2675
471	-2676
472	-2677
473	-2678
475	-2679
476	-2680
477	-2681
478	-2682
479	-2683
521	-2684
529	-2685
530	-2686
531	-2687
532	-2688
533	-2689
534	-2690
536	-2691
537	-2692
538	-2693
539	-2694
540	-2695
541	-2696
542	-2697
544	-2698
545	-2699
548	-2700
549	-2701
551	-2702
552	-2703
555	-2704
559	-2705
560	-2706
561	-2707
562	-2708
563	-2709
564	-2710
565	-2711
566	-2712
568	-2713
569	-2714
570	-2715
571	-2716
572	-2717
573	-2718
574	-2719
575	-2720
577	-2721
578	-2722
579	-2723
580	-2724
581	-2725
582	-2726
584	-2727
585	-2728
588	-2729
589	-2730
630	-2731
631	-2732
632	-2733
634	-2734
635	-2735
636	-2736
637	-2737
638	-2738
639	-2739
640	-2740
641	-2741
642	-2742
645	-2743
648	-2744
850	-2745
867	-2746
901	-2747
902	-2748
903	-2749
904	-2750
905	-2751
906	-2752
907	-2753
908	-2754
909	-2755
950	-2756
951	-2757
952	-2758
953	-2759
954	-2760
956	-2761
957	-2762
958	-2763
959	-2764
980	-2765
981	-2766
982	-2767
983	-2768
984	-2769
985	-2770
986	-2771
987	-2772
988	-2773
989	-2774
ant	-2775
ile	-2776
inú	-2777
lex	-2778
oru	-2779
rus	-2780
uly	-2781
▁Ah	-2782
▁Ga	-2783
▁oṣ	-2784
▁rọ	-2785
▁wú	-2786
rónà	-2787
▁119	-2788
▁122	-2789
▁And	-2790
▁Ojú	-2791
▁diẹ	-2792
▁iko	-2793
▁ipi	-2794
▁òwò	-2795
jagun	-2796
urope	-2797
ṣepọ̀	-2798
▁1984	-2799
▁Akín	-2800
▁Comm	-2801
▁kuro	-2802
▁kókó	-2803
▁lato	-2804
fíríkà	-2805
vision	-2806
▁2020,	-2807
▁March	-2808
▁Niger	-2809
▁Orile	-2810
▁tíátà	-2811
▁ìparí	-2812
▁àkóràn	-2813
▁àwòrán	-2814
ollywood	-2815
▁Yunifásítì	-2816
há	-2817
xi	-2818
001	-2819
002	-2820
003	-2821
004	-2822
005	-2823
006	-2824
007	-2825
008	-2826
030	-2827
031	-2828
033	-2829
034	-2830
035	-2831
036	-2832
037	-2833
038	-2834
039	-2835
040	-2836
041	-2837
042	-2838
044	-2839
045	-2840
048	-2841
049	-2842
050	-2843
051	-2844
052	-2845
055	-2846
059	-2847
060	-2848
061	-2849
062	-2850
063	-2851
064	-2852
065	-2853
066	-2854
067	-2855
068	-2856
069	-2857
070	-2858
071	-2859
072	-2860
073	-2861
075	-2862
076	-2863
077	-2864
078	-2865
079	-2866
080	-2867
081	-2868
082	-2869
084	-2870
088	-2871
089	-2872
091	-2873
101	-2874
102	-2875
103	-2876
105	-2877
106	-2878
107	-2879
108	-2880
109	-2881
111	-2882
120	-2883
121	-2884
122	-2885
123	-2886
125	-2887
127	-2888
128	-2889
130	-2890
133	-2891
134	-2892
135	-2893
137	-2894
138	-2895
141	-2896
142	-2897
143	-2898
146	-2899
147	-2900
149	-2901
151	-2902
153	-2903
154	-2904
155	-2905
156	-2906
157	-2907
158	-2908
162	-2909
163	-2910
164	-2911
165	-2912
168	-2913
169	-2914
171	-2915
172	-2916
173	-2917
174	-2918
175	-2919
176	-2920
177	-2921
179	-2922
180	-2923
181	-2924
182	-2925
186	-2926
187	-2927
188	-2928
189	-2929
190	-2930
191	-2931
192	-2932
195	-2933
196	-2934
198	-2935
199	-2936
201	-2937
202	-2938
203	-2939
204	-2940
205	-2941
206	-2942
207	-2943
208	-2944
209	-2945
649	-2946
660	-2947
661	-2948
662	-2949
663	-2950
664	-2951
665	-2952
668	-2953
669	-2954
670	-2955
671	-2956
672	-2957
673	-2958
674	-2959
675	-2960
676	-2961
678	-2962
679	-2963
730	-2964
732	-2965
734	-2966
735	-2967
736	-2968
738	-2969
739	-2970
740	-2971
741	-2972
742	-2973
745	-2974
748	-2975
749	-2976
760	-2977
761	-2978
762	-2979
765	-2980
768	-2981
769	-2982
770	-2983
771	-2984
772	-2985
774	-2986
775	-2987
776	-2988
777	-2989
778	-2990
779	-2991
821	-2992
829	-2993
830	-2994
831	-2995
832	-2996
833	-2997
834	-2998
835	-2999
836	-3000
837	-3001
839	-3002
851	-3003
859	-3004
880	-3005
881	-3006
882	-3007
885	-3008
888	-3009
889	-3010
bru	-3011
del	-3012
ejo	-3013
hún	-3014
ken	-3015
oma	-3016
ony	-3017
par	-3018
que	-3019
ìní	-3020
▁El	-3021
▁bọ	-3022
▁he	-3023
▁yo	-3024
▁ìṣ	-3025
▁ṣu	-3026
bert	-3027
fàní	-3028
wari	-3029
ẹ̀dá	-3030
▁102	-3031
▁152	-3032
▁272	-3033
▁Ibi	-3034
▁Oju	-3035
▁Sho	-3036
▁Wom	-3037
▁amú	-3038
▁bẹ̀	-3039
▁eye	-3040
▁ina	-3041
▁iṣe	-3042
yanju	-3043
▁1992	-3044
▁Iṣẹ́	-3045
▁arun	-3046
▁dídá	-3047
▁julo	-3048
▁kiri	-3049
▁tobi	-3050
▁wọlé	-3051
▁ọkàn	-3052
bruary	-3053
▁Lagos	-3054
▁kanna	-3055
▁lẹ́ẹ̀	-3056
▁merin	-3057
▁ṣáájú	-3058
▁gẹgẹbi	-3059
▁àpẹẹrẹ	-3060
▁Alakoso	-3061
▁nigbati	-3062
▁December	-3063
▁akẹ́kọ̀ọ́	-3064
▁Ọ̀pọ̀lọpọ̀	-3065
AR	-3066
NA	-3067
id	-3068
ua	-3069
113	-3070
840	-3071
841	-3072
842	-3073
844	-3074
845	-3075
848	-3076
849	-3077
860	-3078
861	-3079
862	-3080
863	-3081
864	-3082
865	-3083
866	-3084
868	-3085
869	-3086
870	-3087
871	-3088
872	-3089
873	-3090
874	-3091
875	-3092
876	-3093
877	-3094
878	-3095
879	-3096
bur	-3097
gbọ	-3098
gen	-3099
ism	-3100
pti	-3101
ren	-3102
tor	-3103
vel	-3104
▁AP	-3105
▁gé	-3106
▁tò	-3107
▁ṣì	-3108
lera	-3109
rayá	-3110
rùún	-3111
sise	-3112
soci	-3113
▁219	-3114
▁Kam	-3115
▁Ola	-3116
▁dáa	-3117
▁ewì	-3118
▁san	-3119
▁àdá	-3120
▁àwo	-3121
▁ìlù	-3122
▁ìpo	-3123
▁ìyà	-3124
▁Ẹni	-3125
▁ọwọ	-3126
▁1980	-3127
▁Abẹ́	-3128
▁City	-3129
▁Geor	-3130
▁Mari	-3131
▁bẹrẹ	-3132
kíyèsí	-3133
▁2016,	-3134
▁Japan	-3135
▁ariwa	-3136
▁eyiti	-3137
▁orílè	-3138
▁tirẹ̀	-3139
▁ìdáni	-3140
▁Ipinlẹ	-3141
▁sugbon	-3142
dinlogun	-3143
▁àgbéjáde	-3144
TA	-3145
yn	-3146
114	-3147
ars	-3148
lay	-3149
mẹ̀	-3150
ojo	-3151
pen	-3152
sọ́	-3153
▁Kó	-3154
▁Sc	-3155
▁ar	-3156
▁do	-3157
▁or	-3158
▁yé	-3159
múlò	-3160
ouse	-3161
pupo	-3162
rans	-3163
tótó	-3164
ìtàn	-3165
▁129	-3166
▁139	-3167
▁149	-3168
▁159	-3169
▁162	-3170
▁192	-3171
▁222	-3172
▁232	-3173
▁239	-3174
▁242	-3175
▁282	-3176
▁Ilu	-3177
▁Ise	-3178
▁Oṣu	-3179
▁adá	-3180
▁com	-3181
▁imọ	-3182
▁iwo	-3183
▁jẹ̀	-3184
▁oye	-3185
▁àpó	-3186
▁ìmò	-3187
▁ẹkọ	-3188
▁ọlọ	-3189
boyan	-3190
òkúta	-3191
▁Arts	-3192
▁July	-3193
▁June	-3194
▁Ninu	-3195
▁atọ́	-3196
▁kopa	-3197
▁lójú	-3198
▁rárá	-3199
▁tóbi	-3200
gbẹ́ni	-3201
▁2010,	-3202
▁2013,	-3203
▁oúnjẹ	-3204
▁àbúrò	-3205
▁ọmọde	-3206
▁Europe	-3207
▁fẹ́ràn	-3208
▁méjèèjì	-3209
▁ìbẹ̀rẹ̀	-3210
▁agbóhùnsáfẹ́fẹ́	-3211
ig	-3212
os	-3213
110	-3214
112	-3215
115	-3216
116	-3217
117	-3218
118	-3219
119	-3220
bri	-3221
eti	-3222
fọ̀	-3223
lis	-3224
ney	-3225
olo	-3226
paa	-3227
▁Dí	-3228
▁mà	-3229
▁yó	-3230
berg	-3231
wàdà	-3232
▁112	-3233
▁172	-3234
▁182	-3235
▁202	-3236
▁212	-3237
▁229	-3238
▁252	-3239
▁262	-3240
▁279	-3241
▁Afi	-3242
▁Car	-3243
▁Her	-3244
▁Sec	-3245
▁Sha	-3246
▁Tra	-3247
▁amo	-3248
▁con	-3249
▁gun	-3250
▁iyi	-3251
▁oba	-3252
▁Àlà	-3253
▁òde	-3254
Congo	-3255
oorun	-3256
▁kíkọ	-3257
▁meta	-3258
▁nìyí	-3259
▁sábà	-3260
▁Àwon	-3261
▁Ògùn	-3262
▁àmìn	-3263
pèjúwe	-3264
▁Black	-3265
▁dagba	-3266
▁funfun	-3267
▁lásìkò	-3268
▁olùgbé	-3269
▁opolopo	-3270
ef	-3271
fé	-3272
fọ	-3273
hu	-3274
hò	-3275
yl	-3276
zz	-3277
̀̀	-3278
ble	-3279
des	-3280
enu	-3281
lán	-3282
mis	-3283
nìí	-3284
orí	-3285
ril	-3286
sil	-3287
urn	-3288
usa	-3289
ìlú	-3290
ínà	-3291
úná	-3292
ṣun	-3293
▁Kú	-3294
▁TV	-3295
▁Ye	-3296
▁du	-3297
▁dè	-3298
▁pò	-3299
▁ìb	-3300
ford	-3301
kiki	-3302
lana	-3303
tile	-3304
tobi	-3305
ínní	-3306
▁(20	-3307
▁109	-3308
▁169	-3309
▁179	-3310
▁189	-3311
▁199	-3312
▁209	-3313
▁249	-3314
▁259	-3315
▁269	-3316
▁Ají	-3317
▁Ash	-3318
▁Bal	-3319
▁Irú	-3320
▁Ita	-3321
▁Mor	-3322
▁ade	-3323
▁ato	-3324
▁bọ́	-3325
▁eka	-3326
▁epo	-3327
▁ibo	-3328
▁ilè	-3329
▁itu	-3330
▁lẹ̀	-3331
▁máà	-3332
▁ìsà	-3333
▁ẹlẹ	-3334
Jẹ̀ṣà	-3335
andan	-3336
dógún	-3337
púpọ̀	-3338
risti	-3339
▁(200	-3340
▁Bank	-3341
▁Chan	-3342
▁Musi	-3343
▁Wiki	-3344
▁pari	-3345
▁pátá	-3346
ariaye	-3347
daraya	-3348
sọ̀rọ̀	-3349
▁2011.	-3350
▁Faran	-3351
▁Leyin	-3352
▁Nigba	-3353
▁World	-3354
▁oògùn	-3355
▁Lọ́dún	-3356
▁People	-3357
▁telifi	-3358
▁kọkànlá	-3359
▁láàárín	-3360
▁ẹgbẹ̀rún	-3361
▁orisirisi	-3362
▁Television	-3363
▁Orímóògùnjẹ́	-3364
cer	-3365
cul	-3366
dẹ̀	-3367
eko	-3368
eru	-3369
ety	-3370
eye	-3371
ild	-3372
ish	-3373
nes	-3374
nia	-3375
omu	-3376
tel	-3377
tin	-3378
urt	-3379
ves	-3380
ùsù	-3381
▁km	-3382
▁è̟	-3383
▁òn	-3384
▁ńì	-3385
▁ṣọ	-3386
jade	-3387
lejò	-3388
lára	-3389
lùmí	-3390
rúko	-3391
siro	-3392
▁Ari	-3393
▁Che	-3394
▁Dan	-3395
▁Ire	-3396
▁iji	-3397
▁ijo	-3398
▁nfa	-3399
▁rẹ́	-3400
▁ère	-3401
ganda	-3402
ìtàgé	-3403
ẹrika	-3404
▁1999	-3405
▁kẹjọ	-3406
▁lara	-3407
▁mimu	-3408
▁ohùn	-3409
▁pere	-3410
▁àwọ̀	-3411
▁ìkàn	-3412
▁ìràn	-3413
▁ọ̀gá	-3414
gbogbo	-3415
▁2009.	-3416
▁2013.	-3417
▁David	-3418
▁agbej	-3419
▁aisan	-3420
▁idije	-3421
▁isele	-3422
tertain	-3423
▁agbaye	-3424
▁Áfíríkà	-3425
▁ìkẹ́kọ̀ọ́	-3426
."	-3427
bs	-3428
gù	-3429
ks	-3430
èé	-3431
Ẹ̀	-3432
▁Í	-3433
air	-3434
ans	-3435
aru	-3436
ces	-3437
dae	-3438
ilu	-3439
tha	-3440
tis	-3441
una	-3442
ury	-3443
òkè	-3444
úkọ	-3445
ọmọ	-3446
▁Du	-3447
▁Im	-3448
▁Jú	-3449
▁Or	-3450
▁Sá	-3451
▁àn	-3452
chno	-3453
ding	-3454
gedé	-3455
silẹ	-3456
sàán	-3457
sítà	-3458
▁Elé	-3459
▁Mur	-3460
▁Nor	-3461
▁Sep	-3462
▁Stu	-3463
▁Ver	-3464
▁abi	-3465
▁amó	-3466
▁din	-3467
▁dẹ́	-3468
▁ewé	-3469
▁ife	-3470
▁iṣa	-3471
▁osù	-3472
▁paa	-3473
▁wòn	-3474
▁àrí	-3475
gbajà	-3476
kùnfà	-3477
kọ́ni	-3478
ùgbón	-3479
▁2001	-3480
▁Abdu	-3481
▁Coun	-3482
▁Gran	-3483
▁Orin	-3484
▁alai	-3485
▁bayi	-3486
▁gbẹ́	-3487
▁odún	-3488
▁Olórí	-3489
▁Willi	-3490
▁Women	-3491
▁apapo	-3492
▁awujo	-3493
▁oṣere	-3494
▁Ọ̀rọ̀	-3495
▁lẹ́hìn	-3496
▁ìsọ̀rí	-3497
▁lápapọ̀	-3498
▁nígbàtí	-3499
▁oludari	-3500
▁ẹ̀gbọ́n	-3501
▁ọmọbìnrin	-3502
sú	-3503
ṣá	-3504
Ọ̀	-3505
▁u	-3506
ate	-3507
bor	-3508
cel	-3509
díò	-3510
fer	-3511
fọn	-3512
gán	-3513
ino	-3514
mer	-3515
mit	-3516
ons	-3517
red	-3518
row	-3519
sta	-3520
ugh	-3521
wor	-3522
▁1.	-3523
▁Ai	-3524
▁Dr	-3525
▁Ló	-3526
▁ré	-3527
▁sẹ	-3528
▁ṣò	-3529
aaju	-3530
arma	-3531
erun	-3532
gede	-3533
jára	-3534
lese	-3535
ting	-3536
well	-3537
yika	-3538
▁Ará	-3539
▁Ele	-3540
▁Gre	-3541
▁abu	-3542
▁amò	-3543
▁aṣò	-3544
▁gùn	-3545
▁ipá	-3546
▁isu	-3547
▁oṣu	-3548
▁yin	-3549
▁ìbò	-3550
▁ọdọ	-3551
ative	-3552
bìrin	-3553
ríṣìí	-3554
tumọ̀	-3555
àìsàn	-3556
ómìnà	-3557
▁1988	-3558
▁1993	-3559
▁2002	-3560
▁Igbo	-3561
▁Ilẹ̀	-3562
▁Paul	-3563
▁agbo	-3564
▁igbo	-3565
▁kọjá	-3566
▁loni	-3567
▁opin	-3568
▁rere	-3569
▁ribi	-3570
▁sinu	-3571
estern	-3572
▁2006,	-3573
▁2019.	-3574
▁Broad	-3575
▁Party	-3576
▁Press	-3577
▁River	-3578
▁ayélu	-3579
▁https	-3580
▁kẹsàn	-3581
▁nílẹ̀	-3582
▁onírú	-3583
▁oogun	-3584
▁wonyi	-3585
▁wọnyi	-3586
▁Èkìtì	-3587
▁àárín	-3588
kitiyan	-3589
▁láwùjọ	-3590
▁àtijọ́	-3591
▁afẹ́fẹ́	-3592
▁olukowe	-3593
▁February	-3594
▁Abẹ́òkúta	-3595
▁Nollywood	-3596
tertainment	-3597
..	-3598
CO	-3599
GB	-3600
ft	-3601
die	-3602
lor	-3603
nic	-3604
ome	-3605
pọn	-3606
sìá	-3607
the	-3608
tho	-3609
way	-3610
yẹn	-3611
ọrọ	-3612
▁Ed	-3613
▁Fí	-3614
▁IS	-3615
▁Kọ	-3616
▁bú	-3617
▁ch	-3618
▁en	-3619
▁mò	-3620
▁ne	-3621
▁wu	-3622
▁Àì	-3623
angu	-3624
gbùn	-3625
kuta	-3626
mìlà	-3627
nafi	-3628
pese	-3629
píté	-3630
sita	-3631
unis	-3632
wadi	-3633
▁Aba	-3634
▁Ber	-3635
▁Law	-3636
▁Oun	-3637
▁Pan	-3638
▁Tai	-3639
▁Wal	-3640
▁abẹ	-3641
▁bọ̀	-3642
▁fọ́	-3643
▁gbò	-3644
▁ibe	-3645
▁ila	-3646
▁ilẹ	-3647
▁kaa	-3648
▁ràn	-3649
▁tàn	-3650
▁Àkó	-3651
▁àlà	-3652
▁àpé	-3653
▁ìrí	-3654
▁ẹya	-3655
fihan	-3656
fẹsẹ̀	-3657
inibi	-3658
kanla	-3659
omina	-3660
rojin	-3661
ràwọ̀	-3662
sofin	-3663
▁1970	-3664
▁1981	-3665
▁1994	-3666
▁1996	-3667
▁Alex	-3668
▁Ange	-3669
▁High	-3670
▁duro	-3671
▁egbò	-3672
▁meje	-3673
▁sile	-3674
kọ̀tàn	-3675
lasisi	-3676
pítérì	-3677
tember	-3678
ìyànjú	-3679
ṣẹ̀lẹ̀	-3680
▁2014.	-3681
▁2015.	-3682
▁2016.	-3683
▁Kenya	-3684
▁karun	-3685
▁lẹ́nu	-3686
▁lọ́mọ	-3687
▁èyítí	-3688
hinrere	-3689
ínísítà	-3690
▁Associ	-3691
▁Uganda	-3692
▁gbígbé	-3693
▁latowo	-3694
▁mẹ́wàá	-3695
▁ìpínlè	-3696
fẹsẹ̀gbá	-3697
kọ̀ọ̀kan	-3698
▁Afirika	-3699
▁Bakanna	-3700
▁nípasẹ̀	-3701
▁Àjẹsára	-3702
▁Júpítérì	-3703
▁ìgbàgbọ́	-3704
▁September	-3705
▁Yunifasiti	-3706
▁lóríṣiríṣi	-3707
ee	-3708
gú	-3709
▁̀	-3710
▁́	-3711
The	-3712
ash	-3713
cas	-3714
mes	-3715
tre	-3716
tro	-3717
uri	-3718
vil	-3719
ìrì	-3720
ẹli	-3721
ọba	-3722
▁Gh	-3723
▁Nà	-3724
▁im	-3725
▁no	-3726
gbin	-3727
gírì	-3728
sódì	-3729
wara	-3730
àrùn	-3731
ṣiṣẹ	-3732
ṣèré	-3733
▁Abe	-3734
▁Aka	-3735
▁Cal	-3736
▁Gba	-3737
▁Jes	-3738
▁Mai	-3739
▁Min	-3740
▁Oro	-3741
▁Oru	-3742
▁adi	-3743
▁aja	-3744
▁amì	-3745
▁eya	-3746
▁ike	-3747
▁isé	-3748
▁odi	-3749
▁sii	-3750
▁sin	-3751
▁sẹ̀	-3752
▁tíì	-3753
▁yòó	-3754
▁Àkọ	-3755
▁Ìlà	-3756
▁àbí	-3757
▁àtì	-3758
▁àwò	-3759
▁ìbà	-3760
▁ìfi	-3761
▁ìpì	-3762
▁Ọjọ	-3763
ejuwe	-3764
gbimo	-3765
yìnbó	-3766
▁1966	-3767
▁1978	-3768
▁Aláà	-3769
▁Asia	-3770
▁Love	-3771
▁West	-3772
▁York	-3773
▁agbé	-3774
▁lílo	-3775
▁para	-3776
▁péré	-3777
▁sókè	-3778
▁àìlè	-3779
▁ẹsẹ̀	-3780
mọ̀ràn	-3781
▁2009,	-3782
▁Benin	-3783
▁Erékù	-3784
▁lẹhin	-3785
▁àlàyé	-3786
▁ìfowó	-3787
ùsùlùmí	-3788
▁Kejìlá	-3789
▁girama	-3790
▁lọ́jọ́	-3791
▁ṣugbọn	-3792
ṣìíríṣìí	-3793
▁Amẹrika	-3794
▁William	-3795
▁gbangba	-3796
▁olóṣèlú	-3797
▁oníṣòwò	-3798
▁ìjìnlẹ̀	-3799
▁Ọlọ́run	-3800
▁ayélujára	-3801
▁idagbasoke	-3802
kh	-3803
ok	-3804
ang	-3805
cro	-3806
dom	-3807
een	-3808
gga	-3809
gọ̀	-3810
kar	-3811
leo	-3812
orn	-3813
owo	-3814
pín	-3815
sìí	-3816
àjò	-3817
úni	-3818
ńlá	-3819
▁Bó	-3820
▁Os	-3821
▁Za	-3822
▁lu	-3823
▁àǹ	-3824
anga	-3825
dúlá	-3826
fefe	-3827
lara	-3828
nagi	-3829
rini	-3830
rámà	-3831
sepo	-3832
sowo	-3833
yawo	-3834
ọdún	-3835
▁Iwe	-3836
▁Láì	-3837
▁Pen	-3838
▁Pre	-3839
▁Sci	-3840
▁Sis	-3841
▁Sun	-3842
▁car	-3843
▁ire	-3844
▁lọ̀	-3845
▁rọ̀	-3846
▁àtẹ	-3847
▁àṣe	-3848
▁ọdẹ	-3849
dinlo	-3850
gbaye	-3851
▁1982	-3852
▁1991	-3853
▁Afro	-3854
▁Agbe	-3855
▁Jose	-3856
▁Mala	-3857
▁bímọ	-3858
▁esin	-3859
▁nílò	-3860
▁papò	-3861
▁pèsè	-3862
▁Àkọ́	-3863
▁ìran	-3864
▁òkun	-3865
conomi	-3866
dọ̀jẹ̀	-3867
hammed	-3868
▁2007,	-3869
▁2012.	-3870
▁2017.	-3871
▁2018.	-3872
▁2020.	-3873
▁Bẹ́ẹ̀	-3874
▁Guusu	-3875
▁Gúúsù	-3876
▁James	-3877
▁asiko	-3878
▁filmu	-3879
▁jagun	-3880
▁lọ́nà	-3881
▁nomba	-3882
▁onimo	-3883
▁oríṣi	-3884
▁dandan	-3885
▁irúfẹ́	-3886
▁lẹ́sẹ̀	-3887
▁farahàn	-3888
dọ̀jẹ̀dọ̀	-3889
▁alákọ̀ọ́	-3890
nafilasisi	-3891
ak	-3892
it	-3893
mp	-3894
adu	-3895
alè	-3896
cra	-3897
fri	-3898
gal	-3899
gue	-3900
iwo	-3901
laa	-3902
mba	-3903
mbá	-3904
mpi	-3905
pha	-3906
pon	-3907
sel	-3908
ses	-3909
set	-3910
vin	-3911
▁At	-3912
▁Tó	-3913
▁ad	-3914
▁jú	-3915
▁sò	-3916
bíni	-3917
búlé	-3918
cial	-3919
jútó	-3920
kusu	-3921
para	-3922
stan	-3923
ston	-3924
tala	-3925
tech	-3926
wole	-3927
ọ̀nà	-3928
▁Ang	-3929
▁Ayé	-3930
▁Cro	-3931
▁Gen	-3932
▁Gra	-3933
▁Ipa	-3934
▁Kin	-3935
▁Mer	-3936
▁Mil	-3937
▁Pub	-3938
▁Ste	-3939
▁ajá	-3940
▁ibà	-3941
▁kii	-3942
▁maá	-3943
▁nla	-3944
▁oti	-3945
▁sún	-3946
▁sọ́	-3947
▁èwe	-3948
▁ìpà	-3949
▁ẹrọ	-3950
▁Ọlọ	-3951
gbona	-3952
kíkan	-3953
léláà	-3954
menti	-3955
ology	-3956
tíìkì	-3957
Èkìtì	-3958
ṣiṣẹ́	-3959
▁1960	-3960
▁1985	-3961
▁1989	-3962
▁1997	-3963
▁Anti	-3964
▁Cent	-3965
▁Mana	-3966
▁bóyá	-3967
▁lọwọ	-3968
▁pọ́n	-3969
▁sele	-3970
▁yàán	-3971
▁yálà	-3972
▁Àgbá	-3973
▁Àsìá	-3974
▁ìbẹ̀	-3975
▁ìdán	-3976
▁ọ̀gb	-3977
gbẹ̀ẹ́	-3978
ìròyìn	-3979
▁2008.	-3980
▁2010.	-3981
▁Ijọba	-3982
▁Recor	-3983
▁Yàtọ̀	-3984
▁ifara	-3985
▁olóyè	-3986
▁oselu	-3987
▁èròjà	-3988
▁ṣẹlẹ̀	-3989
▁ẹ̀jẹ̀	-3990
▁Engine	-3991
▁Gómìnà	-3992
▁Kristi	-3993
▁States	-3994
▁Techno	-3995
▁ìlúmọ̀	-3996
▁ẹnìkan	-3997
▁ọgbọ̀n	-3998
▁aláìsàn	-3999
▁orundun	-4000
▁àkíyèsí	-4001
▁òmìnira	-4002
▁àkọsílẹ̀	-4003
▁agbábọ́ọ̀lù	-4004
▁Entertainment	-4005
ị́	-4006
▁&	-4007
▁X	-4008
aní	-4009
bọọ	-4010
com	-4011
day	-4012
dàá	-4013
dáa	-4014
ele	-4015
láì	-4016
mal	-4017
omo	-4018
oto	-4019
ten	-4020
ufu	-4021
www	-4022
wẹ́	-4023
úró	-4024
▁Dé	-4025
▁Gí	-4026
▁Lt	-4027
▁Lí	-4028
▁Má	-4029
▁Sy	-4030
▁Tu	-4031
▁Yi	-4032
▁jì	-4033
▁jó	-4034
▁yì	-4035
▁ṣá	-4036
ance	-4037
asan	-4038
dian	-4039
kasi	-4040
ling	-4041
lódé	-4042
mary	-4043
ring	-4044
yesi	-4045
òógì	-4046
ọ́nù	-4047
▁Abí	-4048
▁Act	-4049
▁Awo	-4050
▁Can	-4051
▁Enu	-4052
▁Ida	-4053
▁Ife	-4054
▁Imo	-4055
▁Oli	-4056
▁Omi	-4057
▁Tan	-4058
▁abe	-4059
▁ago	-4060
▁ape	-4061
▁awọ	-4062
▁daa	-4063
▁ode	-4064
▁yíì	-4065
▁Àjọ	-4066
▁Òjó	-4067
▁ọgọ	-4068
gbòdì	-4069
luaye	-4070
mited	-4071
mọ́lé	-4072
▁1965	-4073
▁1969	-4074
▁aláà	-4075
▁dida	-4076
▁dìbò	-4077
▁fifi	-4078
▁fọ́n	-4079
▁isin	-4080
▁lodi	-4081
▁pato	-4082
▁plan	-4083
▁Ìpín	-4084
▁ìtẹ̀	-4085
▁ẹ̀rí	-4086
ondary	-4087
tileje	-4088
▁2007.	-4089
▁April	-4090
▁Girls	-4091
▁Jẹ̀ṣà	-4092
▁Peter	-4093
▁abala	-4094
▁ifowo	-4095
▁ipilẹ	-4096
▁iwadi	-4097
▁iṣẹlẹ	-4098
▁kẹwàá	-4099
▁lónìí	-4100
▁mímọ̀	-4101
▁orúko	-4102
▁túmọ̀	-4103
▁tẹ̀dó	-4104
▁wònyí	-4105
▁àpólà	-4106
▁àríwá	-4107
▁ọ̀run	-4108
rúnmìlà	-4109
▁akọ̀wé	-4110
▁gbòógì	-4111
▁kejìlá	-4112
▁méjìlá	-4113
▁sùgbón	-4114
lélọ́gọ́	-4115
undation	-4116
▁Limited	-4117
▁àgbègbè	-4118
▁ìdárayá	-4119
▁ìgbésẹ̀	-4120
▁ṣàfihàn	-4121
▁ọgọ́rùn	-4122
lélọ́gbọ̀n	-4123
▁Olódùmarè	-4124
▁tẹ̀síwájú	-4125
▁ìdàgbàsókè	-4126
▁ọ̀jọ̀gbọ́n	-4127
,5	-4128
AM	-4129
Ba	-4130
Co	-4131
IS	-4132
hy	-4133
ńì	-4134
ach	-4135
asa	-4136
ens	-4137
esi	-4138
fon	-4139
gic	-4140
koo	-4141
lau	-4142
lio	-4143
nel	-4144
oní	-4145
ors	-4146
tch	-4147
tte	-4148
vis	-4149
ókí	-4150
ùwà	-4151
▁Ji	-4152
▁Jì	-4153
▁Ly	-4154
▁Ok	-4155
▁Ol	-4156
▁bè	-4157
▁ca	-4158
▁ee	-4159
▁èé	-4160
▁ìh	-4161
atre	-4162
burg	-4163
esan	-4164
fani	-4165
fitì	-4166
llah	-4167
léló	-4168
lọpọ	-4169
mọ́n	-4170
pari	-4171
vage	-4172
wálé	-4173
égún	-4174
ọfun	-4175
ọkan	-4176
▁Ama	-4177
▁Bet	-4178
▁Cha	-4179
▁Ere	-4180
▁Far	-4181
▁Gbó	-4182
▁Odò	-4183
▁Ojo	-4184
▁Rus	-4185
▁War	-4186
▁aga	-4187
▁baa	-4188
▁bee	-4189
▁dun	-4190
▁dán	-4191
▁gún	-4192
▁ite	-4193
▁jìn	-4194
▁pàà	-4195
▁àbá	-4196
▁ìwọ	-4197
ander	-4198
chael	-4199
danwo	-4200
dàpọ̀	-4201
jẹ̀bú	-4202
longo	-4203
ority	-4204
ralia	-4205
▁1959	-4206
▁1977	-4207
▁1979	-4208
▁Char	-4209
▁Gram	-4210
▁Mary	-4211
▁Odun	-4212
▁aami	-4213
▁borí	-4214
▁díje	-4215
▁igbó	-4216
▁isẹ́	-4217
▁kẹẹ̀	-4218
▁okan	-4219
▁oyún	-4220
▁pèlú	-4221
▁silẹ	-4222
▁yuni	-4223
▁Ògbó	-4224
▁ìgbè	-4225
▁ìrán	-4226
▁ìrọ̀	-4227
▁ṣoṣo	-4228
▁Ẹlẹ́	-4229
▁Ọ̀ra	-4230
▁Bello	-4231
▁House	-4232
▁Mande	-4233
▁Olóyè	-4234
▁Oruko	-4235
▁fúnra	-4236
▁fọwọ́	-4237
▁iwájú	-4238
▁Àríwá	-4239
▁ààrùn	-4240
▁ìfara	-4241
▁ìnagi	-4242
▁Ẹ̀bùn	-4243
▁Ọ̀kan	-4244
lòmíràn	-4245
olytech	-4246
▁Joseph	-4247
▁Savage	-4248
▁amúgbá	-4249
▁gbigba	-4250
▁níbití	-4251
▁ologun	-4252
▁olugbe	-4253
▁àfihàn	-4254
▁ìgbésí	-4255
▁Johnson	-4256
▁apejuwe	-4257
▁gbàgbọ́	-4258
▁ìyísódì	-4259
dínlọ́gọ́	-4260
▁igbákejì	-4261
▁mọ́kànlá	-4262
▁peregedé	-4263
▁ọ̀gbẹ́ni	-4264
▁Association	-4265
▁òṣèrébìnrin	-4266
OR	-4267
fì	-4268
gè	-4269
mè	-4270
tz	-4271
̣́	-4272
cin	-4273
col	-4274
dge	-4275
fìn	-4276
gàn	-4277
ila	-4278
síà	-4279
̀bá	-4280
▁AM	-4281
▁Ku	-4282
▁Lé	-4283
▁My	-4284
▁Nu	-4285
▁Pu	-4286
▁dò	-4287
▁pó	-4288
▁pú	-4289
▁té	-4290
amba	-4291
arch	-4292
aria	-4293
chie	-4294
dies	-4295
dúró	-4296
eder	-4297
jùlọ	-4298
kalẹ	-4299
lejo	-4300
less	-4301
loma	-4302
lọlá	-4303
moni	-4304
rokò	-4305
ríko	-4306
sive	-4307
sonu	-4308
sèlú	-4309
unic	-4310
ving	-4311
wáni	-4312
▁Boo	-4313
▁Ije	-4314
▁Mac	-4315
▁Mah	-4316
▁Oko	-4317
▁Pat	-4318
▁Spa	-4319
▁Tam	-4320
▁Wón	-4321
▁ake	-4322
▁alà	-4323
▁ayò	-4324
▁ijó	-4325
▁iwu	-4326
▁kun	-4327
▁míì	-4328
▁osi	-4329
▁síì	-4330
▁tọ̀	-4331
▁àjò	-4332
▁àmú	-4333
▁àyí	-4334
▁ìlò	-4335
▁ìrò	-4336
▁ìsò	-4337
▁òkú	-4338
▁òsì	-4339
▁ẹja	-4340
▁ẹjẹ	-4341
▁ẹyọ	-4342
▁ọnà	-4343
angua	-4344
ctori	-4345
lókun	-4346
virus	-4347
wádìí	-4348
yensi	-4349
yànjú	-4350
▁1957	-4351
▁1975	-4352
▁1976	-4353
▁Ahma	-4354
▁Best	-4355
▁Bámi	-4356
▁Kẹẹ̀	-4357
▁akọ̀	-4358
▁bibi	-4359
▁cent	-4360
▁eran	-4361
▁iṣan	-4362
▁kúkú	-4363
▁nilo	-4364
▁pupo	-4365
▁tẹlẹ	-4366
▁wọpọ	-4367
▁Àkàn	-4368
▁ìgbá	-4369
▁ìmọ́	-4370
▁ìṣẹ́	-4371
▁òpin	-4372
▁ṣiṣe	-4373
▁ẹ̀mí	-4374
dọ́rin	-4375
illion	-4376
lation	-4377
ojoibi	-4378
íntótó	-4379
▁2005,	-4380
▁2011,	-4381
▁Delta	-4382
▁Enugu	-4383
▁Ijoba	-4384
▁Queen	-4385
▁Saint	-4386
▁ibile	-4387
▁itage	-4388
▁mẹrin	-4389
▁síbẹ̀	-4390
▁tọ́ka	-4391
▁ọ̀rẹ́	-4392
▁ọ̀sẹ̀	-4393
▁ọ̀tọ̀	-4394
inisita	-4395
mission	-4396
▁Olohun	-4397
▁dáadáa	-4398
▁dẹ́kun	-4399
▁iroyin	-4400
▁lọ́dọ̀	-4401
▁Ìjẹ̀sà	-4402
▁Erékùṣù	-4403
▁Society	-4404
▁lagbara	-4405
▁planeti	-4406
▁àádọ́ta	-4407
▁Ihinrere	-4408
▁Foundation	-4409
▁alákọ̀ọ́bẹ̀rẹ̀	-4410
AP	-4411
Am	-4412
NE	-4413
by	-4414
fù	-4415
mb	-4416
nù	-4417
pt	-4418
vo	-4419
wè	-4420
zo	-4421
Pro	-4422
abo	-4423
aid	-4424
ano	-4425
arẹ	-4426
cia	-4427
cil	-4428
cke	-4429
cti	-4430
ena	-4431
fia	-4432
ilé	-4433
ins	-4434
ire	-4435
mọn	-4436
ner	-4437
oka	-4438
oke	-4439
urú	-4440
wán	-4441
yal	-4442
ánú	-4443
édé	-4444
ínì	-4445
ọna	-4446
▁Fú	-4447
▁Jí	-4448
▁Lẹ	-4449
▁Mr	-4450
▁Mé	-4451
▁Sp	-4452
▁Un	-4453
▁ex	-4454
▁fé	-4455
▁iy	-4456
▁sè	-4457
▁òǹ	-4458
▁Ṣó	-4459
▁Ọ́	-4460
anti	-4461
báni	-4462
gbàá	-4463
láwo	-4464
oney	-4465
pata	-4466
riki	-4467
rísi	-4468
rùpù	-4469
soro	-4470
time	-4471
vice	-4472
yewo	-4473
ṣeré	-4474
ṣòro	-4475
ẹ̀rí	-4476
▁BBC	-4477
▁Don	-4478
▁Eri	-4479
▁Glo	-4480
▁Gro	-4481
▁Ibo	-4482
▁Ike	-4483
▁Iya	-4484
▁Iṣẹ	-4485
▁Jan	-4486
▁Lin	-4487
▁Ltd	-4488
▁Mel	-4489
▁Obi	-4490
▁Opo	-4491
▁Sal	-4492
▁Sil	-4493
▁Spe	-4494
▁Sul	-4495
▁Ten	-4496
▁Tom	-4497
▁adu	-4498
▁alu	-4499
▁amu	-4500
▁awa	-4501
▁boo	-4502
▁dùn	-4503
▁eru	-4504
▁ibè	-4505
▁ikọ	-4506
▁làà	-4507
▁nip	-4508
▁níí	-4509
▁sùn	-4510
▁yíò	-4511
▁Ètò	-4512
▁Òmù	-4513
▁àbò	-4514
▁ìpé	-4515
▁ìwú	-4516
▁òye	-4517
▁ẹyẹ	-4518
▁Ọbà	-4519
andra	-4520
boolu	-4521
chard	-4522
dínkù	-4523
fuufu	-4524
gress	-4525
jiyàn	-4526
jíríà	-4527
kẹ́ni	-4528
nìkan	-4529
ọ̀sẹ̀	-4530
▁1950	-4531
▁Demo	-4532
▁Gold	-4533
▁Kẹfà	-4534
▁Miss	-4535
▁Prin	-4536
▁agbẹ	-4537
▁alum	-4538
▁didi	-4539
▁dènà	-4540
▁iwon	-4541
▁keta	-4542
▁kiko	-4543
▁mílí	-4544
▁pese	-4545
▁pàṣẹ	-4546
▁Ìmọ̀	-4547
▁àtẹ̀	-4548
▁ààmì	-4549
▁ìyẹn	-4550
▁ṣètò	-4551
bínibí	-4552
dition	-4553
fojúrí	-4554
furufú	-4555
lùfọ̀n	-4556
ration	-4557
réjáde	-4558
▁Abuja	-4559
▁Ghana	-4560
▁Paris	-4561
▁Púpọ̀	-4562
▁Royal	-4563
▁ayaba	-4564
▁ayẹwo	-4565
▁fidio	-4566
▁ibere	-4567
▁idani	-4568
▁itọju	-4569
▁lásán	-4570
▁oorun	-4571
▁oriṣi	-4572
dúláwọ̀	-4573
máwòrán	-4574
▁akorin	-4575
▁alagba	-4576
▁aláìsí	-4577
▁egbògi	-4578
▁gbigbe	-4579
▁kekere	-4580
▁okunfa	-4581
▁àfikún	-4582
▁ìjọsìn	-4583
▁ṣàlàyé	-4584
▁ẹlẹ́ẹ̀	-4585
▁ọgbọ́n	-4586
▁Michael	-4587
▁Murtala	-4588
▁Publish	-4589
▁Science	-4590
▁aláwàdà	-4591
▁atọ́kùn	-4592
▁bọ́ọ̀lù	-4593
▁lágbára	-4594
▁Mohammed	-4595
▁akọsílẹ̀	-4596
▁nitoripe	-4597
▁oniroyin	-4598
▁àkójọpọ̀	-4599
olytechnic	-4600
▁Australia	-4601
▁Secondary	-4602
▁àgbékalẹ̀	-4603
▁Federalism	-4604
▁Technology	-4605
▁ìrànlọ́wọ́	-4606
▁anafilasisi	-4607
.5	-4608
AS	-4609
ER	-4610
RI	-4611
ah	-4612
fè	-4613
ky	-4614
ud	-4615
xy	-4616
̟n	-4617
ẹẹ	-4618
▁:	-4619
ass	-4620
cen	-4621
cks	-4622
dùń	-4623
eja	-4624
fọ́	-4625
isa	-4626
lar	-4627
mbo	-4628
oko	-4629
opo	-4630
sea	-4631
sha	-4632
wòn	-4633
zil	-4634
ànù	-4635
óná	-4636
▁Mà	-4637
▁Ox	-4638
▁co	-4639
▁e̟	-4640
▁nn	-4641
▁rà	-4642
▁sé	-4643
▁Ṣí	-4644
alis	-4645
alth	-4646
andi	-4647
cate	-4648
demi	-4649
délé	-4650
foju	-4651
form	-4652
gbun	-4653
gine	-4654
ingo	-4655
jànà	-4656
kale	-4657
king	-4658
kẹta	-4659
mate	-4660
méjì	-4661
orùn	-4662
pamo	-4663
pẹrẹ	-4664
ship	-4665
teni	-4666
tera	-4667
tics	-4668
toju	-4669
urch	-4670
vern	-4671
waye	-4672
yẹwo	-4673
àgbà	-4674
àngó	-4675
ṣirò	-4676
▁Afí	-4677
▁Agí	-4678
▁Amo	-4679
▁Coo	-4680
▁Cou	-4681
▁DNA	-4682
▁Gbá	-4683
▁Ham	-4684
▁Hen	-4685
▁Ind	-4686
▁Kho	-4687
▁Lat	-4688
▁Lou	-4689
▁Láà	-4690
▁Mọ́	-4691
▁Olá	-4692
▁Pun	-4693
▁Sto	-4694
▁Wri	-4695
▁You	-4696
▁aké	-4697
▁are	-4698
▁atẹ	-4699
▁dọ́	-4700
▁ewe	-4701
▁ilú	-4702
▁kin	-4703
▁npe	-4704
▁nṣe	-4705
▁odò	-4706
▁pam	-4707
▁pọn	-4708
▁síi	-4709
▁sọ̀	-4710
▁Ìgb	-4711
▁Ìrè	-4712
▁Òkú	-4713
▁àpa	-4714
▁ìké	-4715
▁ìmú	-4716
▁ẹsẹ	-4717
▁ẹtọ	-4718
▁Ọbá	-4719
▁Ọjà	-4720
béèrè	-4721
ering	-4722
orúkọ	-4723
▁1954	-4724
▁1973	-4725
▁1974	-4726
▁1983	-4727
▁Auth	-4728
▁Cham	-4729
▁Gama	-4730
▁Jean	-4731
▁News	-4732
▁Stre	-4733
▁aaye	-4734
▁gbùn	-4735
▁lile	-4736
▁lówó	-4737
▁nibe	-4738
▁pàdé	-4739
▁sísọ	-4740
▁tètè	-4741
▁with	-4742
▁àbọ̀	-4743
▁àgbá	-4744
▁àmọ́	-4745
▁ààrẹ	-4746
▁ìgba	-4747
▁ìsìn	-4748
▁ìtẹ́	-4749
▁Ọmọ́	-4750
alifor	-4751
gberin	-4752
gberun	-4753
gement	-4754
ṣinṣin	-4755
▁2008,	-4756
▁Busin	-4757
▁Grand	-4758
▁Kọkàn	-4759
▁Music	-4760
▁Union	-4761
▁alága	-4762
▁apani	-4763
▁atilẹ	-4764
▁daada	-4765
▁fihàn	-4766
▁gúúsù	-4767
▁ibùdó	-4768
▁idile	-4769
▁iyawo	-4770
▁kọrin	-4771
▁lasan	-4772
▁oluda	-4773
▁papọ̀	-4774
▁àwárí	-4775
▁ìbára	-4776
lelogun	-4777
wánilẹ́	-4778
▁Agbaye	-4779
▁Church	-4780
▁George	-4781
▁Igbimọ	-4782
▁Oxford	-4783
▁gangan	-4784
▁igbesi	-4785
▁ipinlẹ	-4786
▁kakiri	-4787
▁siwaju	-4788
▁sẹ́yìn	-4789
▁ìfihàn	-4790
▁ìṣẹ̀dá	-4791
tilejepe	-4792
▁Aláàfin	-4793
▁Economi	-4794
▁England	-4795
▁Kingdom	-4796
▁Primary	-4797
▁Records	-4798
▁idaraya	-4799
▁olóògbé	-4800
▁sùgbọ́n	-4801
▁Business	-4802
▁Mínísítà	-4803
▁gidigidi	-4804
▁lowolowo	-4805
▁ìgbàlódé	-4806
▁ẹlòmíràn	-4807
▁ọmọkùnrin	-4808
▁Commission	-4809
ọ̀rọ̀wánilẹ́	-4810
▁oríṣìíríṣìí	-4811
▁kejìdínlógún	-4812
DP	-4813
Fe	-4814
sy	-4815
’.	-4816
▁ǹ	-4817
ald	-4818
ayè	-4819
bar	-4820
bíà	-4821
bọ́	-4822
cle	-4823
dou	-4824
fáà	-4825
fíà	-4826
gaz	-4827
gin	-4828
gwe	-4829
hen	-4830
ijo	-4831
lop	-4832
mbà	-4833
nie	-4834
nín	-4835
níà	-4836
otu	-4837
ous	-4838
pal	-4839
pre	-4840
sed	-4841
sie	-4842
spi	-4843
sul	-4844
wai	-4845
yle	-4846
ǹdó	-4847
▁Dá	-4848
▁Ek	-4849
▁Fu	-4850
▁II	-4851
▁Nì	-4852
▁aa	-4853
▁by	-4854
▁bé	-4855
▁gu	-4856
▁ha	-4857
▁ik	-4858
▁it	-4859
▁mù	-4860
▁pọ	-4861
,500	-4862
bani	-4863
bere	-4864
bẹrẹ	-4865
cast	-4866
dudu	-4867
ella	-4868
etro	-4869
gion	-4870
hari	-4871
hite	-4872
jira	-4873
jẹrẹ	-4874
kati	-4875
kìkí	-4876
kòkò	-4877
kòrí	-4878
kòyí	-4879
loju	-4880
lola	-4881
oice	-4882
okan	-4883
pati	-4884
pper	-4885
rúbá	-4886
saba	-4887
tola	-4888
tíré	-4889
ures	-4890
yipo	-4891
yọrí	-4892
éèfù	-4893
ógun	-4894
ẹjọ́	-4895
ẹ̀rọ	-4896
▁Abo	-4897
▁Ani	-4898
▁Ati	-4899
▁Den	-4900
▁Ebu	-4901
▁Egy	-4902
▁Fer	-4903
▁Fou	-4904
▁Ger	-4905
▁Ijo	-4906
▁Inú	-4907
▁Lai	-4908
▁Mid	-4909
▁Ode	-4910
▁Tun	-4911
▁Zim	-4912
▁aje	-4913
▁ajé	-4914
▁ayo	-4915
▁aṣe	-4916
▁aṣo	-4917
▁ese	-4918
▁ira	-4919
▁iri	-4920
▁pèé	-4921
▁àpè	-4922
▁àyè	-4923
▁èkó	-4924
▁ìró	-4925
▁ìsé	-4926
▁ìtu	-4927
anada	-4928
fààní	-4929
kọ́lá	-4930
orira	-4931
oruko	-4932
tical	-4933
tural	-4934
ọ́dún	-4935
▁1952	-4936
▁1967	-4937
▁Ebun	-4938
▁Fola	-4939
▁Girl	-4940
▁Igbe	-4941
▁Igbó	-4942
▁Kẹta	-4943
▁Stan	-4944
▁baki	-4945
▁dàbí	-4946
▁fojú	-4947
▁gbon	-4948
▁gbẹ̀	-4949
▁ikọ̀	-4950
▁irun	-4951
▁jara	-4952
▁jọba	-4953
▁kere	-4954
▁mili	-4955
▁mole	-4956
▁níbè	-4957
▁page	-4958
▁sílè	-4959
▁tumo	-4960
▁Àgbà	-4961
▁Àmọ́	-4962
▁àkàn	-4963
▁ìhun	-4964
▁Ọdẹ́	-4965
jọ̀dún	-4966
kistan	-4967
minira	-4968
sirísi	-4969
tẹ́lẹ̀	-4970
wọ́pọ̀	-4971
▁Ajíbó	-4972
▁Bakan	-4973
▁Italy	-4974
▁Johan	-4975
▁Kwara	-4976
▁Magic	-4977
▁abúlé	-4978
▁alawo	-4979
▁amòye	-4980
▁eleyi	-4981
▁eléré	-4982
▁fihan	-4983
▁fìgbà	-4984
▁ibara	-4985
▁kerin	-4986
▁mẹ́ẹ̀	-4987
▁oluko	-4988
▁orukọ	-4989
▁pinnu	-4990
▁prote	-4991
▁séèfù	-4992
▁tẹ̀lé	-4993
▁Òṣèré	-4994
▁àlejò	-4995
▁ìṣòro	-4996
▁ẹ̀dọ̀	-4997
▁ẹ̀sùn	-4998
gbẹ̀yìn	-4999
▁Lárúbá	-5000
▁afikun	-5001
▁asofin	-5002
▁aṣòfin	-5003
▁eléyìí	-5004
▁gbọdọ̀	-5005
▁igbese	-5006
▁orisun	-5007
▁ìkànnì	-5008
aidrojin	-5009
dọ́gbọ̀n	-5010
yànjiyàn	-5011
▁Mandela	-5012
▁Theatre	-5013
▁alakoso	-5014
▁ìnagijẹ	-5015
▁ọjọgbọn	-5016
dínlógójì	-5017
lẹ́gbẹ̀ẹ́	-5018
▁American	-5019
▁Congress	-5020
▁Mùsùlùmí	-5021
▁ọgọ́rùún	-5022
▁telifisan	-5023
▁jẹ̀dọ̀jẹ̀dọ̀	-5024
1,	-5025
2.	-5026
CE	-5027
IP	-5028
s̟	-5029
zy	-5030
̣̀	-5031
ajo	-5032
ale	-5033
cis	-5034
cri	-5035
ell	-5036
gbu	-5037
gla	-5038
gui	-5039
gẹ̀	-5040
iye	-5041
lie	-5042
mir	-5043
mon	-5044
nsì	-5045
ode	-5046
orì	-5047
pọ́	-5048
rar	-5049
ste	-5050
sún	-5051
tar	-5052
ung	-5053
uno	-5054
win	-5055
zam	-5056
àrà	-5057
ìnì	-5058
ìse	-5059
ónú	-5060
útà	-5061
▁3,	-5062
▁Gb	-5063
▁Of	-5064
▁Pó	-5065
▁Ré	-5066
▁Ró	-5067
▁Zu	-5068
▁aj	-5069
▁el	-5070
▁fò	-5071
▁ij	-5072
▁Ṣé	-5073
▁ṣé	-5074
Afri	-5075
Igbó	-5076
bùdá	-5077
cing	-5078
dent	-5079
dára	-5080
díje	-5081
díẹ̀	-5082
elle	-5083
fini	-5084
gbọ̀	-5085
gree	-5086
góje	-5087
kola	-5088
laye	-5089
lode	-5090
mann	-5091
mera	-5092
mond	-5093
mọrẹ	-5094
petu	-5095
pion	-5096
ribi	-5097
rọsi	-5098
tako	-5099
tani	-5100
tant	-5101
tisi	-5102
uman	-5103
were	-5104
▁287	-5105
▁Awó	-5106
▁Bay	-5107
▁Des	-5108
▁Hol	-5109
▁Hon	-5110
▁Hus	-5111
▁Iko	-5112
▁NTA	-5113
▁Owó	-5114
▁Oyè	-5115
▁Ray	-5116
▁Red	-5117
▁afẹ	-5118
▁aki	-5119
▁aṣà	-5120
▁bẹẹ	-5121
▁eda	-5122
▁eyo	-5123
▁ibá	-5124
▁isa	-5125
▁iyo	-5126
▁oró	-5127
▁oto	-5128
▁rìn	-5129
▁tin	-5130
▁yẹn	-5131
▁yẹ̀	-5132
▁Ìjà	-5133
▁àyà	-5134
▁òdò	-5135
▁òún	-5136
▁ṣeé	-5137
birin	-5138
bẹ́ẹ̀	-5139
court	-5140
ellow	-5141
gbepo	-5142
hamma	-5143
kẹsẹ̀	-5144
lympi	-5145
miran	-5146
risto	-5147
túnṣe	-5148
tọwọ́	-5149
▁1958	-5150
▁1964	-5151
▁Ebon	-5152
▁Egbe	-5153
▁Good	-5154
▁Iran	-5155
▁Kano	-5156
▁Kẹtà	-5157
▁Lead	-5158
▁Samu	-5159
▁Show	-5160
▁arùn	-5161
▁bode	-5162
▁bori	-5163
▁bèrè	-5164
▁http	-5165
▁igbi	-5166
▁jákè	-5167
▁jíjẹ	-5168
▁mimo	-5169
▁mẹfa	-5170
▁ndun	-5171
▁nwọn	-5172
▁okùn	-5173
▁pupọ	-5174
▁pàtó	-5175
▁púpò	-5176
▁soke	-5177
▁sílé	-5178
▁unje	-5179
▁yori	-5180
▁Àrùn	-5181
▁Ìwọ̀	-5182
▁ìfẹ́	-5183
▁ìkọ́	-5184
▁òhun	-5185
▁ṣiṣẹ	-5186
▁ọrun	-5187
chelor	-5188
ctoria	-5189
fásitì	-5190
ṣọ̀kan	-5191
▁Aláyé	-5192
▁Islam	-5193
▁Kọ́lá	-5194
▁Nobel	-5195
▁Portu	-5196
▁Radio	-5197
▁afefe	-5198
▁alaye	-5199
▁baalu	-5200
▁ibẹrẹ	-5201
▁láàyò	-5202
▁lẹ́tà	-5203
▁mímọ́	-5204
▁mẹ́jọ	-5205
▁nnkan	-5206
▁olólù	-5207
▁oniwe	-5208
▁pamọ́	-5209
▁ààrin	-5210
▁ìgbẹ́	-5211
▁ìrírí	-5212
▁òògùn	-5213
▁Ẹ̀kọ́	-5214
▁Ẹ̀wẹ̀	-5215
▁ọ̀mọ̀	-5216
ìṣẹ̀lẹ̀	-5217
▁Govern	-5218
▁Kòrónà	-5219
▁Nitori	-5220
▁igbimọ	-5221
▁obirin	-5222
▁paapaa	-5223
▁wakati	-5224
▁òyìnbó	-5225
▁ṣàwárí	-5226
▁Ẹ̀fọ̀n	-5227
▁ọgọrun	-5228
▁ọ̀gbìn	-5229
gbòdìyàn	-5230
iyepúpọ̀	-5231
▁Democra	-5232
▁Faranse	-5233
▁Faransé	-5234
▁Khoisan	-5235
▁Muhamma	-5236
▁abojuto	-5237
▁aladani	-5238
▁alágbẹ̀	-5239
▁onípele	-5240
▁Àkọ́kọ́	-5241
▁ọlọ́kan	-5242
alifornia	-5243
▁Minisita	-5244
▁Victoria	-5245
▁dáradára	-5246
▁gbùngbùn	-5247
▁ìbáṣepọ̀	-5248
▁Authority	-5249
▁jagunjagun	-5250
▁ìlúmọ̀ọ́ká	-5251
▁Ọ̀jọ̀gbọ́n	-5252
▁kọkàndínlógún	-5253
▁mẹ́rìndínlógún	-5254
▁ìfọ̀rọ̀wánilẹ́	-5255
IT	-5256
IV	-5257
In	-5258
Sc	-5259
ARS	-5260
bwe	-5261
dor	-5262
díà	-5263
esa	-5264
fes	-5265
him	-5266
kia	-5267
líà	-5268
men	-5269
owó	-5270
rie	-5271
sey	-5272
sip	-5273
tó̟	-5274
ush	-5275
wen	-5276
yun	-5277
zer	-5278
zor	-5279
Ìwé	-5280
àbí	-5281
áju	-5282
ìmú	-5283
ìṣe	-5284
ọwọ	-5285
▁0.	-5286
▁2,	-5287
▁AF	-5288
▁Bù	-5289
▁Id	-5290
▁Kà	-5291
▁Lú	-5292
▁UK	-5293
▁Yí	-5294
▁hí	-5295
▁mè	-5296
▁oǹ	-5297
▁yè	-5298
▁òó	-5299
borí	-5300
bour	-5301
bòbò	-5302
bẹsi	-5303
daju	-5304
doko	-5305
dóko	-5306
dúdú	-5307
eran	-5308
haji	-5309
inia	-5310
kuro	-5311
kàwé	-5312
kítà	-5313
kòwò	-5314
line	-5315
lumi	-5316
mino	-5317
mọdé	-5318
níjà	-5319
odun	-5320
oung	-5321
pátá	-5322
roni	-5323
rísí	-5324
ròsọ	-5325
tari	-5326
thro	-5327
tish	-5328
tòsí	-5329
ukwu	-5330
very	-5331
wọlé	-5332
yẹmí	-5333
yẹyẹ	-5334
álẹ̀	-5335
áàsì	-5336
ìkan	-5337
ṣowo	-5338
▁(18	-5339
▁Adu	-5340
▁Apá	-5341
▁Are	-5342
▁Art	-5343
▁Aya	-5344
▁Aṣọ	-5345
▁Blu	-5346
▁Cup	-5347
▁Dar	-5348
▁Ede	-5349
▁God	-5350
▁HIV	-5351
▁Has	-5352
▁Imọ	-5353
▁Ini	-5354
▁Isa	-5355
▁Iwo	-5356
▁Iwọ	-5357
▁Jen	-5358
▁Kwa	-5359
▁Kán	-5360
▁Mos	-5361
▁Mus	-5362
▁Pla	-5363
▁Sam	-5364
▁Spi	-5365
▁Tin	-5366
▁alo	-5367
▁ejo	-5368
▁elo	-5369
▁fon	-5370
▁inf	-5371
▁itọ	-5372
▁iṣé	-5373
▁ogo	-5374
▁rọ́	-5375
▁Àkú	-5376
▁Ìbí	-5377
▁àdà	-5378
▁àtò	-5379
▁àwa	-5380
▁èso	-5381
▁ìfọ	-5382
▁ìpa	-5383
▁òpò	-5384
▁Ọwá	-5385
Allah	-5386
ejade	-5387
ejulo	-5388
fẹ̀ẹ́	-5389
fẹ́mi	-5390
gbóná	-5391
hámọ́	-5392
laaka	-5393
lándì	-5394
lẹ̀kọ	-5395
mẹ́ta	-5396
okuta	-5397
pedia	-5398
rílẹ̀	-5399
síbẹ̀	-5400
tilẹ̀	-5401
velop	-5402
wándé	-5403
wòran	-5404
yinbo	-5405
yìntì	-5406
ṣòfin	-5407
ọ́mbà	-5408
▁1943	-5409
▁1956	-5410
▁1972	-5411
▁2021	-5412
▁APOR	-5413
▁Agbá	-5414
▁Beau	-5415
▁Dúró	-5416
▁East	-5417
▁Fred	-5418
▁Gege	-5419
▁Igwe	-5420
▁Maja	-5421
▁Nico	-5422
▁Quin	-5423
▁SARS	-5424
▁Sala	-5425
▁Sing	-5426
▁Slam	-5427
▁Town	-5428
▁View	-5429
▁akẹ́	-5430
▁alán	-5431
▁amọ̀	-5432
▁burú	-5433
▁dájú	-5434
▁fífi	-5435
▁gbàá	-5436
▁ijin	-5437
▁kewa	-5438
▁labe	-5439
▁lílò	-5440
▁papa	-5441
▁pupa	-5442
▁pápá	-5443
▁soro	-5444
▁tutu	-5445
▁títi	-5446
▁títì	-5447
▁wúlò	-5448
▁yato	-5449
▁Ìgbé	-5450
▁àtọ̀	-5451
▁ìgbe	-5452
▁ìsẹ̀	-5453
▁òkan	-5454
▁ẹjọ́	-5455
▁ẹyin	-5456
▁Ọ̀nà	-5457
amusin	-5458
bẹsibẹ	-5459
darapo	-5460
gazine	-5461
ingham	-5462
lombia	-5463
▁1992.	-5464
▁Abdul	-5465
▁Adams	-5466
▁Báyìí	-5467
▁Cross	-5468
▁Fíìmù	-5469
▁Iléṣà	-5470
▁Karua	-5471
▁Kẹrin	-5472
▁Super	-5473
▁Trans	-5474
▁adari	-5475
▁alase	-5476
▁ayika	-5477
▁déédé	-5478
▁guusu	-5479
▁ibaje	-5480
▁ilana	-5481
▁isupo	-5482
▁lààmì	-5483
▁omode	-5484
▁oríkì	-5485
▁pínyà	-5486
▁Àìsàn	-5487
▁àkòrí	-5488
▁àkọlé	-5489
▁àpéjọ	-5490
▁èkejì	-5491
▁ìjoba	-5492
▁ìtajà	-5493
▁ṣaláì	-5494
▁ẹ̀tọ́	-5495
ojuorun	-5496
patitis	-5497
pilẹ̀kọ	-5498
tíréṣọ̀	-5499
▁Georgi	-5500
▁German	-5501
▁Gomina	-5502
▁Ijẹ̀bú	-5503
▁Island	-5504
▁Lọ́jọ́	-5505
▁afihan	-5506
▁enikan	-5507
▁gbòòrò	-5508
▁imọran	-5509
▁jẹjẹrẹ	-5510
▁kíkópa	-5511
▁olootu	-5512
▁àtúnṣe	-5513
▁ìsàlẹ̀	-5514
▁òmíràn	-5515
▁ṣẹ́gun	-5516
▁Ọlọrun	-5517
poration	-5518
tilẹ̀jẹ́	-5519
▁Adéwálé	-5520
▁Agbegbe	-5521
▁Austria	-5522
▁Nations	-5523
▁Service	-5524
▁abínibí	-5525
▁million	-5526
▁ìṣàkóso	-5527
▁Abeokuta	-5528
▁Ajíbógun	-5529
▁akitiyan	-5530
▁atilẹyin	-5531
▁iranlọwọ	-5532
▁lẹ́ẹ̀kan	-5533
▁mẹ́rìnlá	-5534
▁oníròyìn	-5535
▁onírúurú	-5536
▁àjọṣepọ̀	-5537
unications	-5538
▁haidrojin	-5539
▁oludasile	-5540
▁Polytechnic	-5541
▁amúgbálẹ́gbẹ̀ẹ́	-5542
%)	-5543
'.	-5544
-9	-5545
.8	-5546
AN	-5547
BE	-5548
BN	-5549
ED	-5550
Ma	-5551
Ra	-5552
ek	-5553
ep	-5554
ia	-5555
né	-5556
rd	-5557
zu	-5558
áí	-5559
̟-	-5560
▁É	-5561
▁̣	-5562
Ban	-5563
Oba	-5564
bal	-5565
bes	-5566
cid	-5567
gbì	-5568
iki	-5569
ira	-5570
kes	-5571
kwu	-5572
kín	-5573
ler	-5574
lli	-5575
lùú	-5576
lúù	-5577
nah	-5578
nis	-5579
ntí	-5580
thm	-5581
uma	-5582
wis	-5583
èsì	-5584
éré	-5585
óró	-5586
ṣàn	-5587
ọnà	-5588
▁71	-5589
▁Ac	-5590
▁Aṣ	-5591
▁Fm	-5592
▁Iy	-5593
▁Kì	-5594
▁Ng	-5595
▁Pà	-5596
▁Yé	-5597
▁au	-5598
▁dọ	-5599
▁fó	-5600
▁ip	-5601
▁nà	-5602
▁pp	-5603
▁ró	-5604
▁vi	-5605
▁òò	-5606
▁ńi	-5607
▁ẸI	-5608
awọn	-5609
bara	-5610
bise	-5611
deen	-5612
dide	-5613
dojú	-5614
egbe	-5615
erra	-5616
etry	-5617
fara	-5618
fisi	-5619
illa	-5620
ject	-5621
jádò	-5622
jòyè	-5623
kete	-5624
kina	-5625
kọwe	-5626
lavi	-5627
lùkù	-5628
màle	-5629
náwó	-5630
olar	-5631
ordo	-5632
padá	-5633
pamọ	-5634
puta	-5635
reso	-5636
rown	-5637
sili	-5638
soto	-5639
sọrọ	-5640
tabi	-5641
tayo	-5642
unla	-5643
wọ̀ń	-5644
̀̀̀̀	-5645
ṣínà	-5646
ṣírí	-5647
▁Air	-5648
▁Aká	-5649
▁All	-5650
▁Ami	-5651
▁Clo	-5652
▁Dah	-5653
▁Edo	-5654
▁Eto	-5655
▁Fol	-5656
▁Fre	-5657
▁Igi	-5658
▁Iso	-5659
▁Jẹ̀	-5660
▁Mad	-5661
▁Max	-5662
▁Out	-5663
▁Sar	-5664
▁Sou	-5665
▁Swe	-5666
▁USA	-5667
▁Vir	-5668
▁aṣa	-5669
▁eti	-5670
▁ifa	-5671
▁ihò	-5672
▁imú	-5673
▁ini	-5674
▁iná	-5675
▁ker	-5676
▁laa	-5677
▁lar	-5678
▁mej	-5679
▁mon	-5680
▁mẹ̀	-5681
▁nlo	-5682
▁olè	-5683
▁per	-5684
▁sch	-5685
▁sul	-5686
▁sàn	-5687
▁Àṣà	-5688
▁àlù	-5689
▁àpí	-5690
▁ìkọ	-5691
▁ìmọ	-5692
▁ìsá	-5693
▁òjò	-5694
▁òṣù	-5695
▁ṣọ̀	-5696
▁ẹwà	-5697
Proto	-5698
ctive	-5699
ctors	-5700
dekun	-5701
eroon	-5702
jiyan	-5703
jìnnà	-5704
kanle	-5705
kòóso	-5706
lassi	-5707
lòpọ̀	-5708
mania	-5709
onica	-5710
ploma	-5711
thing	-5712
tunde	-5713
▁1940	-5714
▁1947	-5715
▁1951	-5716
▁1963	-5717
▁1968	-5718
▁Bada	-5719
▁Bara	-5720
▁Díẹ̀	-5721
▁Faso	-5722
▁Feli	-5723
▁Ibra	-5724
▁Ibẹ̀	-5725
▁Jìjì	-5726
▁Kare	-5727
▁Keji	-5728
▁Lami	-5729
▁Life	-5730
▁Mada	-5731
▁Port	-5732
▁Prog	-5733
▁Seri	-5734
▁Ther	-5735
▁Tẹli	-5736
▁Yaba	-5737
▁agbè	-5738
▁agbó	-5739
▁aini	-5740
▁daju	-5741
▁dari	-5742
▁dojú	-5743
▁dédé	-5744
▁gbọ̀	-5745
▁gusu	-5746
▁gòkè	-5747
▁ilẹ́	-5748
▁kìló	-5749
▁lábé	-5750
▁lédè	-5751
▁lòdì	-5752
▁pipe	-5753
▁saba	-5754
▁sọọ́	-5755
▁wọ̀ń	-5756
▁yara	-5757
▁Àlàó	-5758
▁Ìrìn	-5759
▁Òmùò	-5760
▁ààyè	-5761
▁àìní	-5762
▁ògbó	-5763
▁ṣeré	-5764
▁Ọdun	-5765
▁ọrọ̀	-5766
airọsi	-5767
dínláà	-5768
kokoro	-5769
kòkòrò	-5770
kòrónà	-5771
lọ́run	-5772
lọ́wọ̀	-5773
ojúmọ́	-5774
pilese	-5775
tireso	-5776
vement	-5777
yẹ́nsì	-5778
ọ́ọ̀sì	-5779
▁2006.	-5780
▁Benue	-5781
▁China	-5782
▁Ebony	-5783
▁Group	-5784
▁Iwadi	-5785
▁Media	-5786
▁Okere	-5787
▁Power	-5788
▁Síbẹ̀	-5789
▁apapọ	-5790
▁deede	-5791
▁elédè	-5792
▁eroja	-5793
▁ipese	-5794
▁lehin	-5795
▁lógún	-5796
▁lọ́lá	-5797
▁mọ́ra	-5798
▁odidi	-5799
▁ogbon	-5800
▁olówó	-5801
▁takun	-5802
▁titun	-5803
▁tẹ̀le	-5804
▁yòókù	-5805
▁Òrìṣà	-5806
▁àkókó	-5807
▁àtijó	-5808
▁ṣaaju	-5809
▁ṣẹ̀dá	-5810
▁Ẹgbẹ́	-5811
▁ẹ̀fọn	-5812
▁ẹ̀ràn	-5813
▁ẹ̀rún	-5814
▁ẹ̀yán	-5815
▁Ọ̀ràn	-5816
▁ọ̀dùń	-5817
▁ọ̀kàn	-5818
anguage	-5819
ingotra	-5820
iwoorun	-5821
kíkanjú	-5822
mọnìyàn	-5823
yàwòrán	-5824
▁Brazil	-5825
▁Fransi	-5826
▁Fásitì	-5827
▁Golden	-5828
▁Olympi	-5829
▁Robert	-5830
▁Samuel	-5831
▁Street	-5832
▁Tinsel	-5833
▁adehun	-5834
▁adugbo	-5835
▁adájọ́	-5836
▁amóhùn	-5837
▁ariyan	-5838
▁degree	-5839
▁dìgírì	-5840
▁efuufu	-5841
▁gírámà	-5842
▁kúrùpù	-5843
▁kẹtàlá	-5844
▁lórúkọ	-5845
▁ojoibi	-5846
▁olorin	-5847
▁ránṣẹ́	-5848
▁telefi	-5849
▁Ènìyàn	-5850
▁Ìjẹ̀ṣà	-5851
▁Ìtumọ̀	-5852
▁ìbẹ̀rù	-5853
▁ìṣègùn	-5854
gedemeji	-5855
▁Afíríkà	-5856
▁Britani	-5857
▁Burkina	-5858
▁Francis	-5859
▁Obìnrin	-5860
▁abinibi	-5861
▁akiyesi	-5862
▁akọ́kọ́	-5863
▁century	-5864
▁gẹ̀ẹ́sì	-5865
▁kaakiri	-5866
▁kariaye	-5867
▁ojúlówó	-5868
▁olokiki	-5869
▁olùkópa	-5870
▁Àjàpadá	-5871
▁ìpolówó	-5872
▁òfurufú	-5873
fowópamọ́	-5874
▁Lárúbáwá	-5875
▁Ogunlọlá	-5876
▁Pakistan	-5877
▁Williams	-5878
▁agbejoro	-5879
▁babaláwo	-5880
▁gbìyànjú	-5881
▁ribiribi	-5882
▁ònkọ̀tàn	-5883
▁Alexander	-5884
▁Aláyémọrẹ	-5885
▁alágbẹ̀dẹ	-5886
▁àgbéyẹ̀wò	-5887
▁Ọbàlùfọ̀n	-5888
▁Democratic	-5889
▁Yunifásitì	-5890
▁gbajúgbajà	-5891
▁ariyanjiyan	-5892
▁lẹ́sẹ̀kẹsẹ̀	-5893
.,	-5894
AA	-5895
Au	-5896
DR	-5897
Li	-5898
SP	-5899
nọ	-5900
yd	-5901
yó	-5902
Ifá	-5903
aly	-5904
ceu	-5905
chu	-5906
dad	-5907
duc	-5908
gou	-5909
iṣe	-5910
kka	-5911
lah	-5912
lem	-5913
lot	-5914
làn	-5915
nan	-5916
nus	-5917
onú	-5918
oot	-5919
phi	-5920
phy	-5921
pot	-5922
rom	-5923
tto	-5924
àti	-5925
álé	-5926
ánà	-5927
ìdá	-5928
ńtú	-5929
▁(3	-5930
▁).	-5931
▁1,	-5932
▁CN	-5933
▁FM	-5934
▁IP	-5935
▁Il	-5936
▁It	-5937
▁Mí	-5938
▁NI	-5939
▁bì	-5940
▁dẹ	-5941
▁ge	-5942
▁lù	-5943
▁mì	-5944
▁nu	-5945
▁s̟	-5946
▁we	-5947
▁wù	-5948
▁Ẹ́	-5949
atic	-5950
ball	-5951
cago	-5952
ello	-5953
enna	-5954
fair	-5955
femi	-5956
gali	-5957
gírí	-5958
kita	-5959
kopu	-5960
kúrò	-5961
lent	-5962
life	-5963
loro	-5964
léní	-5965
manu	-5966
mati	-5967
mith	-5968
míkà	-5969
m̀bá	-5970
ngbà	-5971
nuwò	-5972
okun	-5973
onel	-5974
onne	-5975
pere	-5976
ppor	-5977
páta	-5978
riṣi	-5979
sing	-5980
soju	-5981
tara	-5982
thia	-5983
ties	-5984
ttle	-5985
yọkà	-5986
àgbé	-5987
ṣípà	-5988
ẹ́mi	-5989
ẹẹsi	-5990
▁Aki	-5991
▁Arí	-5992
▁Aye	-5993
▁Bon	-5994
▁Die	-5995
▁Dou	-5996
▁Eye	-5997
▁Fal	-5998
▁Fin	-5999
▁Gan	-6000
▁Gri	-6001
▁Igb	-6002
▁Ill	-6003
▁Ina	-6004
▁Iṣe	-6005
▁Lee	-6006
▁Lẹ̀	-6007
▁Mba	-6008
▁Men	-6009
▁Mul	-6010
▁Nàí	-6011
▁Oku	-6012
▁Oma	-6013
▁Pas	-6014
▁Res	-6015
▁Rom	-6016
▁Rub	-6017
▁Shi	-6018
▁Sin	-6019
▁Sẹ̀	-6020
▁Tal	-6021
▁Tri	-6022
▁Tro	-6023
▁Wat	-6024
▁aká	-6025
▁asà	-6026
▁béè	-6027
▁cor	-6028
▁die	-6029
▁dáà	-6030
▁enu	-6031
▁eso	-6032
▁gbẹ	-6033
▁gẹ̀	-6034
▁gẹ́	-6035
▁ijọ	-6036
▁ilo	-6037
▁ilà	-6038
▁ita	-6039
▁jin	-6040
▁kín	-6041
▁mas	-6042
▁nuk	-6043
▁oja	-6044
▁oji	-6045
▁onì	-6046
▁ore	-6047
▁sán	-6048
▁sáà	-6049
▁sín	-6050
▁yín	-6051
▁Ìwà	-6052
▁àtí	-6053
▁èsì	-6054
▁ìsè	-6055
▁ìsọ	-6056
▁òpó	-6057
▁ṣee	-6058
▁Ọdẹ	-6059
▁Ọna	-6060
adura	-6061
aniel	-6062
babwe	-6063
bakar	-6064
bique	-6065
briel	-6066
báyọ̀	-6067
cture	-6068
gbana	-6069
gboro	-6070
geant	-6071
ginia	-6072
lagba	-6073
lagbà	-6074
lence	-6075
làndì	-6076
lọrin	-6077
mágbè	-6078
míyàn	-6079
nínbí	-6080
palẹ̀	-6081
ption	-6082
ricul	-6083
rìnwá	-6084
ríayé	-6085
sanjo	-6086
sànyà	-6087
tanna	-6088
tunse	-6089
urufu	-6090
ville	-6091
ẹ́rẹ́	-6092
ọ̀tọ̀	-6093
ọ́lẹ̀	-6094
▁1946	-6095
▁1949	-6096
▁1955	-6097
▁Akwa	-6098
▁Bola	-6099
▁Cape	-6100
▁Chel	-6101
▁Esin	-6102
▁Frán	-6103
▁Jack	-6104
▁Jesu	-6105
▁Kong	-6106
▁Moji	-6107
▁Okun	-6108
▁Open	-6109
▁Para	-6110
▁Plan	-6111
▁Play	-6112
▁Pọ́n	-6113
▁Sara	-6114
▁Shan	-6115
▁Time	-6116
▁Titi	-6117
▁Turn	-6118
▁Títí	-6119
▁anti	-6120
▁asia	-6121
▁boya	-6122
▁eyin	-6123
▁fura	-6124
▁isan	-6125
▁kejo	-6126
▁kojú	-6127
▁kose	-6128
▁kọja	-6129
▁loju	-6130
▁làti	-6131
▁látì	-6132
▁lóde	-6133
▁múná	-6134
▁nini	-6135
▁nira	-6136
▁níṣe	-6137
▁otun	-6138
▁pade	-6139
▁sórí	-6140
▁tako	-6141
▁tótó	-6142
▁tọka	-6143
▁yege	-6144
▁àgba	-6145
▁ààbò	-6146
▁èsìn	-6147
▁ìkọ̀	-6148
▁ìlẹ̀	-6149
▁ẹbun	-6150
▁ọrùn	-6151
asofin	-6152
dipupo	-6153
funfun	-6154
sional	-6155
sowopo	-6156
unisti	-6157
ṣẹ́gun	-6158
▁1990.	-6159
▁1995.	-6160
▁2001,	-6161
▁2004,	-6162
▁2004.	-6163
▁Alága	-6164
▁Atlan	-6165
▁Bassa	-6166
▁Feder	-6167
▁Fẹ́mi	-6168
▁Jamai	-6169
▁Latin	-6170
▁Massa	-6171
▁Micro	-6172
▁Mozam	-6173
▁Oríṣi	-6174
▁Patri	-6175
▁Sudan	-6176
▁afẹwà	-6177
▁agogo	-6178
▁akole	-6179
▁akori	-6180
▁akọni	-6181
▁alákò	-6182
▁aláṣẹ	-6183
▁gbáko	-6184
▁gbọdọ	-6185
▁idibo	-6186
▁ilera	-6187
▁imoye	-6188
▁jìnnà	-6189
▁kálẹ̀	-6190
▁kọ̀wé	-6191
▁ogójì	-6192
▁okowo	-6193
▁olodi	-6194
▁onídà	-6195
▁oníṣe	-6196
▁osise	-6197
▁seyin	-6198
▁Àkókó	-6199
▁ìkéde	-6200
▁ìkòkò	-6201
▁ọpọ́n	-6202
armaceu	-6203
duction	-6204
gbómìnà	-6205
limenti	-6206
lẹ́gbẹ́	-6207
ootball	-6208
usulumi	-6209
▁Alhaji	-6210
▁Asofin	-6211
▁Grammy	-6212
▁Hassan	-6213
▁Lásìkò	-6214
▁Lọ́wọ́	-6215
▁Nation	-6216
▁Peters	-6217
▁atunse	-6218
▁darapo	-6219
▁igbona	-6220
▁iwosan	-6221
▁kejila	-6222
▁kẹ́rin	-6223
▁lailai	-6224
▁lọ́pọ̀	-6225
▁onígbà	-6226
▁Àkúrẹ́	-6227
▁Àwòrán	-6228
▁Ìbílẹ̀	-6229
▁àkànṣe	-6230
▁àkọ́bí	-6231
▁ìbéèrè	-6232
▁ìkọ́ni	-6233
▁ìpìlẹ̀	-6234
▁ìṣẹ́jú	-6235
▁ẹlẹ́yà	-6236
dunadura	-6237
lọsíwájú	-6238
sowọ́pọ̀	-6239
yìnnínbí	-6240
▁Balógun	-6241
▁British	-6242
▁Channel	-6243
▁Chicago	-6244
▁Council	-6245
▁Develop	-6246
▁English	-6247
▁Georgia	-6248
▁Nígbàtí	-6249
▁afàìsàn	-6250
▁alumoni	-6251
▁bakanna	-6252
▁farahan	-6253
▁iyipada	-6254
▁lagbaye	-6255
▁mejeeji	-6256
▁ofurufu	-6257
▁ojogbon	-6258
▁Ìgbìmọ̀	-6259
▁ìṣèjọba	-6260
▁ṣaláìsí	-6261
dinlogbon	-6262
istration	-6263
ẹ̀ẹ́dógún	-6264
▁Abubakar	-6265
▁Kolombia	-6266
▁Portugal	-6267
▁Zimbabwe	-6268
▁olólùfẹ́	-6269
▁pátápátá	-6270
▁ìgbeyàwó	-6271
▁ìgbèríko	-6272
▁Olómìnira	-6273
▁Oríṣiríṣi	-6274
▁agbaboolu	-6275
▁arákùnrin	-6276
▁didiboyan	-6277
▁tẹlifíṣàn	-6278
▁àfẹsẹ̀gbá	-6279
▁àgbàlagbà	-6280
▁California	-6281
▁Mozambique	-6282
▁yunifásítì	-6283
▁àìlèfojúrí	-6284
▁Corporation	-6285
);	-6286
-2	-6287
BA	-6288
CC	-6289
He	-6290
IN	-6291
RT	-6292
UN	-6293
ag	-6294
aj	-6295
gn	-6296
kt	-6297
è̟	-6298
íà	-6299
▁0	-6300
Nig	-6301
ada	-6302
adọ	-6303
ajé	-6304
alu	-6305
bio	-6306
bán	-6307
bọn	-6308
dar	-6309
dis	-6310
edy	-6311
ful	-6312
gẹ́	-6313
iba	-6314
ind	-6315
isi	-6316
isu	-6317
key	-6318
lat	-6319
nti	-6320
náà	-6321
orò	-6322
oui	-6323
oye	-6324
pes	-6325
phe	-6326
rys	-6327
rìí	-6328
rìń	-6329
ser	-6330
tai	-6331
try	-6332
tus	-6333
uth	-6334
vat	-6335
zzy	-6336
ìbí	-6337
òwò	-6338
óló	-6339
óòó	-6340
ùún	-6341
ọmu	-6342
▁2.	-6343
▁51	-6344
▁Hu	-6345
▁Ij	-6346
▁Ké	-6347
▁Mó	-6348
▁OA	-6349
▁Tá	-6350
▁Um	-6351
▁Ur	-6352
▁Wà	-6353
▁Yo	-6354
▁aá	-6355
▁bò	-6356
▁gì	-6357
▁kè	-6358
▁rú	-6359
▁sy	-6360
▁th	-6361
▁wẹ	-6362
▁ìr	-6363
ande	-6364
biri	-6365
blic	-6366
cker	-6367
danu	-6368
dánù	-6369
ered	-6370
ffer	-6371
gulu	-6372
gídí	-6373
ille	-6374
inab	-6375
inla	-6376
isto	-6377
jopo	-6378
juwe	-6379
kara	-6380
kose	-6381
kátà	-6382
kòsì	-6383
kòwé	-6384
lawo	-6385
lian	-6386
luku	-6387
lura	-6388
láyé	-6389
lórí	-6390
mist	-6391
mita	-6392
mule	-6393
mulo	-6394
mèyí	-6395
mítà	-6396
ogra	-6397
omin	-6398
onwe	-6399
pian	-6400
pèsè	-6401
raka	-6402
rist	-6403
rust	-6404
rìgì	-6405
stic	-6406
stẹ́	-6407
síra	-6408
takò	-6409
than	-6410
them	-6411
tini	-6412
tuma	-6413
télè	-6414
téwó	-6415
tòrò	-6416
tùtù	-6417
uaga	-6418
urdi	-6419
urun	-6420
wana	-6421
óònù	-6422
úndé	-6423
ṣepọ	-6424
ẹ̀ta	-6425
ọdun	-6426
ọ̀ni	-6427
ọ́rì	-6428
▁978	-6429
▁Aké	-6430
▁Apo	-6431
▁Blo	-6432
▁Box	-6433
▁Diẹ	-6434
▁Eti	-6435
▁Fas	-6436
▁Hin	-6437
▁Ila	-6438
▁Jon	-6439
▁Kat	-6440
▁Lan	-6441
▁Les	-6442
▁Lib	-6443
▁MTV	-6444
▁Mam	-6445
▁Med	-6446
▁Mes	-6447
▁Mir	-6448
▁Net	-6449
▁Rev	-6450
▁Roo	-6451
▁Ros	-6452
▁Sco	-6453
▁Ter	-6454
▁Tẹ́	-6455
▁Vol	-6456
▁ajọ	-6457
▁aró	-6458
▁bìn	-6459
▁dan	-6460
▁ebi	-6461
▁fin	-6462
▁hun	-6463
▁iha	-6464
▁làá	-6465
▁oga	-6466
▁par	-6467
▁sáá	-6468
▁tii	-6469
▁ton	-6470
▁tra	-6471
▁tòó	-6472
▁yat	-6473
▁Àgù	-6474
▁Ìkẹ	-6475
▁Ìlé	-6476
▁Ìyà	-6477
▁àfò	-6478
▁àká	-6479
▁àlé	-6480
▁àrò	-6481
▁àse	-6482
▁àsà	-6483
▁àsọ	-6484
▁àtà	-6485
▁èka	-6486
▁ìtà	-6487
▁òjí	-6488
▁ọja	-6489
cular	-6490
depen	-6491
dogba	-6492
duate	-6493
dégbà	-6494
erian	-6495
ester	-6496
guusu	-6497
gágun	-6498
ijoun	-6499
làgbà	-6500
lọ́lá	-6501
mputa	-6502
mọlẹ̀	-6503
mọ̀ọ́	-6504
ránṣọ	-6505
rẹ̀mí	-6506
segun	-6507
sionu	-6508
stron	-6509
tẹ̀wé	-6510
▁1914	-6511
▁1925	-6512
▁1929	-6513
▁1938	-6514
▁1945	-6515
▁1953	-6516
▁1962	-6517
▁Akan	-6518
▁Arin	-6519
▁Ayọ̀	-6520
▁Blin	-6521
▁Fújì	-6522
▁Gúsù	-6523
▁Igbá	-6524
▁Kókó	-6525
▁Mali	-6526
▁Meri	-6527
▁Ofin	-6528
▁Ondo	-6529
▁Oǹdó	-6530
▁Stra	-6531
▁Year	-6532
▁ajẹ́	-6533
▁alẹ́	-6534
▁aràn	-6535
▁comm	-6536
▁ebun	-6537
▁eyín	-6538
▁igun	-6539
▁ikun	-6540
▁ikọ́	-6541
▁jásí	-6542
▁kole	-6543
▁kíkà	-6544
▁labẹ	-6545
▁léwu	-6546
▁mimọ	-6547
▁mule	-6548
▁mímú	-6549
▁siso	-6550
▁sori	-6551
▁soso	-6552
▁suga	-6553
▁sáyé	-6554
▁toun	-6555
▁télè	-6556
▁tókù	-6557
▁unse	-6558
▁Àtún	-6559
▁àtàn	-6560
▁ìpin	-6561
▁ìtọ̀	-6562
▁ìtọ́	-6563
▁ògùn	-6564
▁ṣeto	-6565
▁ṣojú	-6566
▁ṣòro	-6567
▁Ẹ̀yà	-6568
▁ẹkùn	-6569
alisti	-6570
fanian	-6571
furufu	-6572
mòọ́ká	-6573
mójútó	-6574
mọ̀kẹ́	-6575
olongo	-6576
rúndún	-6577
vannah	-6578
vation	-6579
zation	-6580
▁1960,	-6581
▁1997.	-6582
▁1998,	-6583
▁Adeni	-6584
▁Angel	-6585
▁Angli	-6586
▁Anini	-6587
▁Chief	-6588
▁Child	-6589
▁Covid	-6590
▁Green	-6591
▁Karun	-6592
▁Mercy	-6593
▁Obama	-6594
▁Ogulu	-6595
▁Okoya	-6596
▁Scand	-6597
▁Steph	-6598
▁Túndé	-6599
▁awari	-6600
▁awujọ	-6601
▁dinku	-6602
▁elétò	-6603
▁gbani	-6604
▁gbọ̀n	-6605
▁jókòó	-6606
▁korin	-6607
▁kẹ́ta	-6608
▁láàyè	-6609
▁olorì	-6610
▁oluse	-6611
▁onile	-6612
▁onise	-6613
▁pẹ̀lu	-6614
▁trans	-6615
▁túbọ̀	-6616
▁yíyàn	-6617
▁Ìwọ̀n	-6618
▁Ìyàwó	-6619
▁àbùdá	-6620
▁àrokò	-6621
▁àtẹnu	-6622
▁àádọ́	-6623
▁ìbáni	-6624
▁ìlérí	-6625
▁ìnáwó	-6626
▁ìṣirò	-6627
▁ṣàgbé	-6628
▁ṣíṣẹ́	-6629
▁Ọ̀ṣun	-6630
▁ọgbin	-6631
▁ọ̀wọ́	-6632
Federal	-6633
fisiọnu	-6634
gbẹ́kẹ̀	-6635
idaraya	-6636
lentele	-6637
mèyítọ́	-6638
pọ́ntọ̀	-6639
themati	-6640
téwógbà	-6641
▁Alagba	-6642
▁Bámijí	-6643
▁Fellow	-6644
▁Global	-6645
▁Igbimo	-6646
▁Ileoba	-6647
▁Irúfẹ́	-6648
▁Karùún	-6649
▁Living	-6650
▁Lọ́pọ̀	-6651
▁Martha	-6652
▁Russia	-6653
▁Sultan	-6654
▁Taiwan	-6655
▁Victor	-6656
▁Zainab	-6657
▁alábàá	-6658
▁bìnrin	-6659
▁dárúkọ	-6660
▁forúkọ	-6661
▁gbígba	-6662
▁ibugbe	-6663
▁lakoko	-6664
▁mejeji	-6665
▁míìràn	-6666
▁níwọ̀n	-6667
▁obìrin	-6668
▁okùnfà	-6669
▁pàdánù	-6670
▁pọ́njú	-6671
▁school	-6672
▁Àgbáyé	-6673
▁Àkọtọ́	-6674
▁Àpapọ̀	-6675
▁Ìjìnnà	-6676
▁àpíìrì	-6677
▁ìgbéga	-6678
▁ìsìnkú	-6679
onwealth	-6680
rúnmọlẹ̀	-6681
sialisti	-6682
tobijulo	-6683
▁Balogun	-6684
▁Indepen	-6685
▁Maxwell	-6686
▁Project	-6687
▁Richard	-6688
▁Western	-6689
▁fọ́nrán	-6690
▁ipilẹṣẹ	-6691
▁iṣakoso	-6692
▁iṣeduro	-6693
▁okùnrin	-6694
▁wọ̀nyìí	-6695
▁Ìṣẹ̀lẹ̀	-6696
▁àjọ̀dún	-6697
▁àpèjúwe	-6698
▁ìgbóhùn	-6699
▁ọkunrin	-6700
rànlọ́wọ́	-6701
àfẹsẹ̀gbá	-6702
▁Adúláwọ̀	-6703
▁Cameroon	-6704
▁agbejade	-6705
▁alágbára	-6706
▁idiboyan	-6707
▁kìlómítà	-6708
▁lọwọlọwọ	-6709
▁mílíọ̀nù	-6710
▁tẹ̀gbọ́n	-6711
▁Ìgbàgbọ́	-6712
▁àpilẹ̀kọ	-6713
▁ìpolongo	-6714
▁ṣàpèjúwe	-6715
▁ọmọnìyàn	-6716
ordofanian	-6717
▁Awólọ́wọ̀	-6718
▁Wikipedia	-6719
▁akọ̀ròyìn	-6720
▁igbiyanju	-6721
▁ilominira	-6722
▁Government	-6723
▁Management	-6724
▁rògbòdìyàn	-6725
▁ìfowópamọ́	-6726
▁Independent	-6727
▁tẹlifisiọnu	-6728
▁ìbánisọ̀rọ̀	-6729
▁Commonwealth	-6730
▁lọ́wọ́lọ́wọ́	-6731
▁mẹ́tàdínlógún	-6732
▁onírúiyepúpọ̀	-6733
▁kejìdínlọ́gbọ̀n	-6734
AL	-6735
BS	-6736
CA	-6737
CN	-6738
DA	-6739
EN	-6740
IM	-6741
La	-6742
NU	-6743
ON	-6744
PP	-6745
TP	-6746
Tu	-6747
dd	-6748
ip	-6749
lm	-6750
qi	-6751
ùń	-6752
...	-6753
Ife	-6754
Uni	-6755
ace	-6756
bet	-6757
cos	-6758
cta	-6759
cus	-6760
cyc	-6761
dum	-6762
dò̟	-6763
eld	-6764
eng	-6765
esí	-6766
gar	-6767
ida	-6768
kie	-6769
kor	-6770
mbu	-6771
ndó	-6772
old	-6773
oré	-6774
pel	-6775
psi	-6776
rah	-6777
sii	-6778
sín	-6779
ure	-6780
yìń	-6781
zia	-6782
ànú	-6783
ìlà	-6784
ínu	-6785
▁(2	-6786
▁(7	-6787
▁5,	-6788
▁Aa	-6789
▁Aj	-6790
▁Cy	-6791
▁Dà	-6792
▁Es	-6793
▁E̟	-6794
▁Ik	-6795
▁Jù	-6796
▁MA	-6797
▁Mò	-6798
▁Rá	-6799
▁SA	-6800
▁Sò	-6801
▁Yu	-6802
▁Yá	-6803
▁ah	-6804
▁et	-6805
▁id	-6806
▁nú	-6807
▁Àá	-6808
▁Èè	-6809
▁ìj	-6810
▁ón	-6811
▁Ṣa	-6812
▁ṣú	-6813
agbe	-6814
assi	-6815
beli	-6816
besi	-6817
bodè	-6818
boto	-6819
bàtá	-6820
bélì	-6821
city	-6822
coln	-6823
cord	-6824
coun	-6825
ctro	-6826
doju	-6827
dènà	-6828
ency	-6829
erti	-6830
giri	-6831
hilo	-6832
ijin	-6833
inda	-6834
irst	-6835
isìn	-6836
jayé	-6837
jẹun	-6838
jọpọ	-6839
kali	-6840
kani	-6841
kuru	-6842
kéré	-6843
kọni	-6844
late	-6845
leen	-6846
leko	-6847
lenu	-6848
lole	-6849
lànà	-6850
mani	-6851
mide	-6852
modu	-6853
mole	-6854
nami	-6855
ness	-6856
omas	-6857
onai	-6858
pany	-6859
parí	-6860
phth	-6861
pupa	-6862
ques	-6863
rìsà	-6864
simi	-6865
sola	-6866
sula	-6867
tajà	-6868
tein	-6869
tete	-6870
toko	-6871
tors	-6872
tẹrù	-6873
vard	-6874
wani	-6875
wáyé	-6876
yamo	-6877
yato	-6878
àájì	-6879
òrun	-6880
óòlù	-6881
̟dò̟	-6882
̟kan	-6883
ṣoṣo	-6884
ṣunu	-6885
ṣókí	-6886
ẹ̀lú	-6887
▁(15	-6888
▁29,	-6889
▁Agu	-6890
▁Aji	-6891
▁Apa	-6892
▁Awu	-6893
▁Bio	-6894
▁Cli	-6895
▁Cri	-6896
▁Cun	-6897
▁Day	-6898
▁Efe	-6899
▁Eni	-6900
▁Ful	-6901
▁Gam	-6902
▁Gbà	-6903
▁Iru	-6904
▁Jer	-6905
▁Kọ̀	-6906
▁Kọ́	-6907
▁Los	-6908
▁Mat	-6909
▁Nan	-6910
▁Odo	-6911
▁Oke	-6912
▁One	-6913
▁Oso	-6914
▁Pra	-6915
▁Sat	-6916
▁Sir	-6917
▁Som	-6918
▁Sum	-6919
▁Sur	-6920
▁Thi	-6921
▁Tor	-6922
▁Tọ́	-6923
▁adj	-6924
▁ajẹ	-6925
▁asọ	-6926
▁eri	-6927
▁ifẹ	-6928
▁iro	-6929
▁iyẹ	-6930
▁kán	-6931
▁kíá	-6932
▁kùn	-6933
▁met	-6934
▁nit	-6935
▁nse	-6936
▁oge	-6937
▁ojó	-6938
▁uni	-6939
▁wor	-6940
▁yíi	-6941
▁Àbí	-6942
▁Àdì	-6943
▁Àfi	-6944
▁Èrò	-6945
▁Ìdá	-6946
▁Ìwò	-6947
▁Òké	-6948
▁Òwu	-6949
▁àbà	-6950
▁àdí	-6951
▁àtè	-6952
▁ènì	-6953
▁èrè	-6954
▁ìbú	-6955
▁ìda	-6956
▁ìhà	-6957
▁òtí	-6958
▁ṣàì	-6959
▁ọṣẹ	-6960
Oòrùn	-6961
ambra	-6962
bọ́lá	-6963
dánwò	-6964
déhùn	-6965
dẹ́mì	-6966
erick	-6967
eriko	-6968
faani	-6969
fairs	-6970
fínní	-6971
fíìmù	-6972
fọwọ́	-6973
gbàgì	-6974
gical	-6975
jinde	-6976
jókòó	-6977
jọ́rò	-6978
leoti	-6979
líìkì	-6980
moran	-6981
mpútà	-6982
mọran	-6983
rogen	-6984
sanmí	-6985
sepọ̀	-6986
sinmi	-6987
sopọ̀	-6988
sàlẹ̀	-6989
sọ́nà	-6990
tland	-6991
tọ́lá	-6992
wanda	-6993
ùwàsí	-6994
ńtúrì	-6995
ṣríṣi	-6996
ṣègùn	-6997
▁1000	-6998
▁1933	-6999
▁1961	-7000
▁1971	-7001
▁Anna	-7002
▁Blue	-7003
▁Care	-7004
▁Cleo	-7005
▁Conf	-7006
▁Educ	-7007
▁Fati	-7008
▁Fron	-7009
▁Hugh	-7010
▁ISBN	-7011
▁Juli	-7012
▁Kaye	-7013
▁Keje	-7014
▁Kẹ́n	-7015
▁Ladi	-7016
▁Moun	-7017
▁Nigh	-7018
▁Nípa	-7019
▁Offi	-7020
▁Onye	-7021
▁Osun	-7022
▁Pear	-7023
▁Rafi	-7024
▁Rain	-7025
▁Raza	-7026
▁Sene	-7027
▁Tara	-7028
▁Tiwa	-7029
▁acid	-7030
▁bàtà	-7031
▁dani	-7032
▁dibo	-7033
▁dipo	-7034
▁egun	-7035
▁erin	-7036
▁fagi	-7037
▁fere	-7038
▁film	-7039
▁fowo	-7040
▁gbìn	-7041
▁iwọn	-7042
▁jije	-7043
▁joyè	-7044
▁jíjà	-7045
▁jẹun	-7046
▁jẹyọ	-7047
▁kefa	-7048
▁kikọ	-7049
▁kini	-7050
▁koja	-7051
▁lewu	-7052
▁lodo	-7053
▁látà	-7054
▁lílọ	-7055
▁lẹnu	-7056
▁musi	-7057
▁mímu	-7058
▁nile	-7059
▁pinu	-7060
▁plán	-7061
▁péye	-7062
▁pẹpẹ	-7063
▁pẹrẹ	-7064
▁sára	-7065
▁síse	-7066
▁wiwu	-7067
▁yapa	-7068
▁yiya	-7069
▁yàrá	-7070
▁ìgbì	-7071
▁ìlọ́	-7072
▁ẹ̀ẹ̀	-7073
▁ẹ̀ẹ́	-7074
▁ọbẹ̀	-7075
▁ọ̀rò	-7076
▁ọ̀tá	-7077
besibe	-7078
bridge	-7079
chukwu	-7080
ctoral	-7081
dojúkọ	-7082
gbépọ̀	-7083
gbẹ̀ta	-7084
gúngún	-7085
hiloso	-7086
iwosan	-7087
jànàkú	-7088
ksijin	-7089
logbon	-7090
lumbia	-7091
lẹ́yìn	-7092
matiki	-7093
pinpin	-7094
silini	-7095
yipada	-7096
yípadà	-7097
ànìyàn	-7098
únisìn	-7099
▁1976.	-7100
▁1995,	-7101
▁1998.	-7102
▁2003,	-7103
▁Adama	-7104
▁Ahmed	-7105
▁Aláké	-7106
▁Amara	-7107
▁Ander	-7108
▁Congo	-7109
▁Gẹẹsi	-7110
▁Hausa	-7111
▁Kagga	-7112
▁Karùn	-7113
▁Kínní	-7114
▁Kẹwàá	-7115
▁Kẹ́ta	-7116
▁Larin	-7117
▁Lẹhin	-7118
▁Mauri	-7119
▁Negga	-7120
▁North	-7121
▁Olúwa	-7122
▁Ouaga	-7123
▁Pẹ̀lú	-7124
▁Sound	-7125
▁aarin	-7126
▁abiso	-7127
▁adani	-7128
▁alaga	-7129
▁atomu	-7130
▁bakit	-7131
▁eégún	-7132
▁gbéra	-7133
▁gigun	-7134
▁ibití	-7135
▁ibudo	-7136
▁iriri	-7137
▁itumo	-7138
▁itumọ	-7139
▁kikun	-7140
▁lẹyin	-7141
▁lọ́kọ	-7142
▁nṣiṣẹ	-7143
▁olùkọ	-7144
▁onina	-7145
▁orókè	-7146
▁pààlà	-7147
▁pípẹ́	-7148
▁rántí	-7149
▁sísun	-7150
▁taara	-7151
▁tiwọn	-7152
▁tọ́jú	-7153
▁yioku	-7154
▁Òkúpè	-7155
▁àyọkà	-7156
▁ààfin	-7157
▁ìbejì	-7158
▁ìbòjú	-7159
▁ìjòyè	-7160
▁ìpàdé	-7161
▁ìṣèlú	-7162
▁ẹ̀kẹ́	-7163
▁ẹ̀ṣọ́	-7164
▁Ọgbẹ́	-7165
▁Ọ̀san	-7166
▁Ọọ̀ni	-7167
▁ọ̀rùn	-7168
▁ọ̀tún	-7169
Western	-7170
fojúsùn	-7171
gbangba	-7172
ilaorun	-7173
kọsílẹ̀	-7174
lágbára	-7175
lénígba	-7176
mágbèsì	-7177
máwòran	-7178
olution	-7179
rojinle	-7180
túpalẹ̀	-7181
unadoko	-7182
▁Baálẹ̀	-7183
▁Brasil	-7184
▁Buhari	-7185
▁Egypti	-7186
▁Fránsì	-7187
▁Harold	-7188
▁Lakoko	-7189
▁Láìpẹ́	-7190
▁Martin	-7191
▁Michel	-7192
▁Montre	-7193
▁Series	-7194
▁Studio	-7195
▁adigun	-7196
▁ajinde	-7197
▁aṣáájú	-7198
▁dídarí	-7199
▁gbooro	-7200
▁gbàgbé	-7201
▁gbádùn	-7202
▁gbógun	-7203
▁gomina	-7204
▁ibùgbé	-7205
▁ifihan	-7206
▁isinmi	-7207
▁itanna	-7208
▁kookan	-7209
▁korira	-7210
▁kọọkan	-7211
▁lapapo	-7212
▁méjèjì	-7213
▁níwájú	-7214
▁okeere	-7215
▁olopaa	-7216
▁oluran	-7217
▁onigba	-7218
▁oyinbo	-7219
▁pinpin	-7220
▁pípọ́n	-7221
▁Ìròyìn	-7222
▁àǹfàní	-7223
▁ìdájọ́	-7224
▁ìrántí	-7225
▁ìtumọ̀	-7226
▁ìwáṣẹ̀	-7227
▁Anambra	-7228
▁Awolowo	-7229
▁Charles	-7230
▁Chelsea	-7231
▁Gabriel	-7232
▁Germany	-7233
▁Ibrahim	-7234
▁Kariaye	-7235
▁Nàìjírí	-7236
▁Obafemi	-7237
▁Oludari	-7238
▁Omotola	-7239
▁Progres	-7240
▁Yéwándé	-7241
▁alaisan	-7242
▁asọ̀rọ̀	-7243
▁erekusu	-7244
▁gbo̟dò̟	-7245
▁ibasepo	-7246
▁idasile	-7247
▁irinṣẹ́	-7248
▁kẹrìnlá	-7249
▁lorílẹ̀	-7250
▁lẹhinna	-7251
▁miliọnu	-7252
▁nífẹ̀ẹ́	-7253
▁oníṣókí	-7254
▁sayensi	-7255
▁ìgbafẹ́	-7256
▁ìpèníjà	-7257
▁Ọ̀gbàgì	-7258
▁ọgọ́rún	-7259
fessional	-7260
thimatiki	-7261
▁Adébáyọ̀	-7262
▁Bachelor	-7263
▁Columbia	-7264
▁Muhammad	-7265
▁Virginia	-7266
▁agbekalẹ	-7267
▁apanilẹ́	-7268
▁ayàwòrán	-7269
▁didasile	-7270
▁gẹ́gẹ́bí	-7271
▁nukleoti	-7272
▁nímọ̀ràn	-7273
▁patapata	-7274
▁ìsémọ́lé	-7275
▁ẹnikẹ́ni	-7276
▁Ọ̀gbẹ́ni	-7277
▁ọmọbìrin	-7278
tilẹ̀jẹ́pé	-7279
▁Broadcast	-7280
▁Engineers	-7281
▁olódùmarè	-7282
▁oriṣiriṣi	-7283
▁ìgbìyànjú	-7284
▁Ọ̀rúnmìlà	-7285
▁ọmọbinrin	-7286
▁Publishers	-7287
▁Síbẹ̀síbẹ̀	-7288
▁afẹwàṣiṣẹ́	-7289
▁egbegberun	-7290
▁mẹ́ẹ̀dógún	-7291
▁Ọ̀rànmíyàn	-7292
▁ọ̀tọ̀ọ̀tọ̀	-7293
▁Development	-7294
▁àríyànjiyàn	-7295
▁Lọ́wọ́lọ́wọ́	-7296
▁kẹtàdínlógún	-7297
▁Ọ̀sanyìnnínbí	-7298
-3	-7299
-7	-7300
.3	-7301
AF	-7302
CV	-7303
EL	-7304
ET	-7305
NC	-7306
SS	-7307
TC	-7308
TS	-7309
bb	-7310
cc	-7311
gs	-7312
gv	-7313
hù	-7314
ij	-7315
py	-7316
pì	-7317
vy	-7318
wẹ	-7319
xt	-7320
̀i	-7321
́i	-7322
ṣI	-7323
’,	-7324
▁/	-7325
▁x	-7326
▁ú	-7327
-20	-7328
800	-7329
Alá	-7330
Com	-7331
Oló	-7332
als	-7333
atu	-7334
ava	-7335
ayo	-7336
bul	-7337
dau	-7338
dic	-7339
duń	-7340
eal	-7341
ecu	-7342
emi	-7343
ewé	-7344
fan	-7345
fic	-7346
gas	-7347
gie	-7348
gon	-7349
gry	-7350
gwa	-7351
gyi	-7352
hol	-7353
inf	-7354
jor	-7355
kon	-7356
kóó	-7357
led	-7358
let	-7359
lou	-7360
lén	-7361
líù	-7362
mbe	-7363
mia	-7364
mie	-7365
mil	-7366
mph	-7367
mán	-7368
mìí	-7369
míì	-7370
móà	-7371
ntì	-7372
nọs	-7373
olk	-7374
olí	-7375
olú	-7376
oob	-7377
oso	-7378
oul	-7379
our	-7380
réà	-7381
sas	-7382
s̟e	-7383
tee	-7384
tùn	-7385
uti	-7386
yam	-7387
yel	-7388
yne	-7389
yáà	-7390
àbá	-7391
ìdí	-7392
ìsì	-7393
ìyà	-7394
ìyá	-7395
òrè	-7396
órí	-7397
ǹsì	-7398
ṣan	-7399
ẹri	-7400
ọnù	-7401
▁''	-7402
▁("	-7403
▁(4	-7404
▁(6	-7405
▁),	-7406
▁61	-7407
▁CE	-7408
▁Ef	-7409
▁FR	-7410
▁Fà	-7411
▁Kh	-7412
▁Mc	-7413
▁Mẹ	-7414
▁Nn	-7415
▁Oò	-7416
▁Sé	-7417
▁Tà	-7418
▁Wọ	-7419
▁ag	-7420
▁gá	-7421
▁gò	-7422
▁sú	-7423
▁Ìṣ	-7424
▁Òg	-7425
▁àt	-7426
▁óò	-7427
-200	-7428
Life	-7429
West	-7430
afin	-7431
anda	-7432
andy	-7433
ange	-7434
anic	-7435
anie	-7436
ario	-7437
ater	-7438
baje	-7439
balẹ	-7440
beth	-7441
bola	-7442
bomi	-7443
book	-7444
boxy	-7445
bron	-7446
bser	-7447
buru	-7448
burú	-7449
dard	-7450
dele	-7451
dini	-7452
dájú	-7453
dáni	-7454
erry	-7455
fẹ̀h	-7456
gbej	-7457
gbòn	-7458
gram	-7459
guin	-7460
gìrì	-7461
góró	-7462
heed	-7463
horo	-7464
hálà	-7465
igbe	-7466
inea	-7467
isàn	-7468
jara	-7469
jélè	-7470
keni	-7471
kosi	-7472
kíyè	-7473
kókò	-7474
kọja	-7475
kọkọ	-7476
lace	-7477
laya	-7478
letò	-7479
lopò	-7480
lose	-7481
lugi	-7482
làdé	-7483
làjú	-7484
láàá	-7485
lọgọ	-7486
mane	-7487
mbọ̀	-7488
meta	-7489
mily	-7490
ndro	-7491
ning	-7492
nock	-7493
ombe	-7494
pera	-7495
peri	-7496
péjú	-7497
ries	-7498
rish	-7499
rity	-7500
rone	-7501
rónì	-7502
saye	-7503
sian	-7504
sona	-7505
sọna	-7506
tali	-7507
thon	-7508
tiwa	-7509
tory	-7510
tter	-7511
tẹnu	-7512
vent	-7513
woro	-7514
wujo	-7515
wọle	-7516
yana	-7517
yanu	-7518
yara	-7519
yemi	-7520
yste	-7521
yàrá	-7522
áàlú	-7523
íràn	-7524
ṣadé	-7525
ṣiṣe	-7526
Ọjọ́	-7527
▁Adá	-7528
▁Adó	-7529
▁Ajo	-7530
▁Ako	-7531
▁Ale	-7532
▁Alf	-7533
▁Amé	-7534
▁Aní	-7535
▁Awa	-7536
▁Aṣe	-7537
▁BCE	-7538
▁Bab	-7539
▁Bau	-7540
▁Bil	-7541
▁Bir	-7542
▁Bán	-7543
▁Cen	-7544
▁Cra	-7545
▁Dam	-7546
▁Dor	-7547
▁Eli	-7548
▁Ero	-7549
▁Ewì	-7550
▁Fla	-7551
▁Gem	-7552
▁Ibe	-7553
▁Ilo	-7554
▁Inu	-7555
▁Ira	-7556
▁Jẹ́	-7557
▁Kẹ̀	-7558
▁Lar	-7559
▁Len	-7560
▁Lux	-7561
▁Mak	-7562
▁Mal	-7563
▁Nam	-7564
▁Num	-7565
▁OAU	-7566
▁Odu	-7567
▁Oka	-7568
▁Ome	-7569
▁Osi	-7570
▁Owo	-7571
▁Ram	-7572
▁Ras	-7573
▁Tur	-7574
▁USD	-7575
▁Van	-7576
▁Wel	-7577
▁Wil	-7578
▁Yan	-7579
▁Yóò	-7580
▁abà	-7581
▁adì	-7582
▁ajì	-7583
▁aka	-7584
▁ani	-7585
▁apo	-7586
▁asá	-7587
▁aṣè	-7588
▁aṣẹ	-7589
▁col	-7590
▁dún	-7591
▁ejò	-7592
▁eku	-7593
▁emi	-7594
▁erú	-7595
▁gbu	-7596
▁gen	-7597
▁ibí	-7598
▁ide	-7599
▁iho	-7600
▁ije	-7601
▁ika	-7602
▁isọ	-7603
▁iyì	-7604
▁kẹ̀	-7605
▁lee	-7606
▁lòó	-7607
▁náa	-7608
▁odù	-7609
▁owa	-7610
▁oún	-7611
▁pon	-7612
▁rin	-7613
▁saa	-7614
▁sub	-7615
▁tit	-7616
▁táa	-7617
▁was	-7618
▁Àpa	-7619
▁Àtì	-7620
▁Ìjọ	-7621
▁Ìlá	-7622
▁Ìtà	-7623
▁Òdú	-7624
▁àdì	-7625
▁àgó	-7626
▁àjẹ	-7627
▁àpò	-7628
▁ìdi	-7629
▁ìfẹ	-7630
▁ìlè	-7631
▁ìse	-7632
▁ònà	-7633
▁ẹbi	-7634
▁ẹdọ	-7635
▁ẹka	-7636
▁ọbẹ	-7637
▁ọtí	-7638
-1959	-7639
Ekiti	-7640
alect	-7641
ality	-7642
allen	-7643
belle	-7644
bugbe	-7645
bàdàn	-7646
bẹ̀wò	-7647
bọọmu	-7648
daràn	-7649
dotun	-7650
dóníà	-7651
dẹ́nu	-7652
gbowo	-7653
house	-7654
inema	-7655
jọkan	-7656
kanju	-7657
kánná	-7658
káwọ́	-7659
kọrin	-7660
kọ̀yà	-7661
lendu	-7662
lísíà	-7663
lẹyìn	-7664
lẹ́bí	-7665
merin	-7666
mẹ̀yà	-7667
mọ́nì	-7668
mọ́ra	-7669
orile	-7670
phere	-7671
ptist	-7672
ransi	-7673
ridae	-7674
runmí	-7675
senta	-7676
shood	-7677
skopu	-7678
tisti	-7679
téríà	-7680
túnkọ	-7681
tẹnọs	-7682
tẹ́nì	-7683
tọ̀ọ́	-7684
wards	-7685
zania	-7686
àròsọ	-7687
ṣẹ̀dá	-7688
ẹgẹbi	-7689
ọ́lọ́	-7690
▁1848	-7691
▁1934	-7692
▁1935	-7693
▁1944	-7694
▁1948	-7695
▁Adam	-7696
▁Afgh	-7697
▁Agbo	-7698
▁Amar	-7699
▁Book	-7700
▁Boys	-7701
▁Brad	-7702
▁Brea	-7703
▁Camp	-7704
▁Emmy	-7705
▁Erin	-7706
▁Fame	-7707
▁Fela	-7708
▁Femi	-7709
▁Ford	-7710
▁Gene	-7711
▁Giwa	-7712
▁Ibom	-7713
▁Itan	-7714
▁Jona	-7715
▁Karl	-7716
▁Kemi	-7717
▁Kete	-7718
▁Khan	-7719
▁Kogi	-7720
▁Kuba	-7721
▁Kíní	-7722
▁Kódà	-7723
▁Lady	-7724
▁Lowo	-7725
▁Mama	-7726
▁Mike	-7727
▁Muka	-7728
▁Olóò	-7729
▁Oyin	-7730
▁Papa	-7731
▁Poto	-7732
▁Quar	-7733
▁Rock	-7734
▁Romu	-7735
▁Tinú	-7736
▁Togo	-7737
▁Tony	-7738
▁Trin	-7739
▁Viet	-7740
▁Yemi	-7741
▁aare	-7742
▁aito	-7743
▁amọ́	-7744
▁awẹ́	-7745
▁bàbà	-7746
▁daru	-7747
▁doju	-7748
▁dìde	-7749
▁fidi	-7750
▁gban	-7751
▁gbin	-7752
▁gede	-7753
▁ifun	-7754
▁igbẹ	-7755
▁jìnà	-7756
▁keke	-7757
▁kòkó	-7758
▁kẹfa	-7759
▁laye	-7760
▁loun	-7761
▁láyè	-7762
▁lérò	-7763
▁mefa	-7764
▁mejo	-7765
▁mulẹ	-7766
▁méjé	-7767
▁ngbe	-7768
▁nibẹ	-7769
▁pipa	-7770
▁pàrà	-7771
▁pípa	-7772
▁pípé	-7773
▁rara	-7774
▁rárà	-7775
▁sípò	-7776
▁sọnù	-7777
▁tito	-7778
▁torí	-7779
▁wiwo	-7780
▁wàjà	-7781
▁wíwú	-7782
▁yatọ	-7783
▁Ìgbò	-7784
▁Òfin	-7785
▁àkọ̀	-7786
▁àlọ́	-7787
▁àmbá	-7788
▁ìrun	-7789
▁ìwọ́	-7790
▁ìyìn	-7791
▁òsẹ̀	-7792
▁ókàn	-7793
▁ǹkan	-7794
▁Ẹgbẹ	-7795
▁Ẹ̀ka	-7796
▁ẹ̀wà	-7797
▁Ọkan	-7798
alanga	-7799
armaco	-7800
dogbon	-7801
dougou	-7802
dọ́gba	-7803
gbeyin	-7804
gbógun	-7805
igbimọ	-7806
ington	-7807
lẹ̀mọ́	-7808
mitoro	-7809
ndrome	-7810
parapo	-7811
person	-7812
public	-7813
pọlọpọ	-7814
rystal	-7815
sirisi	-7816
sẹ́dọ̀	-7817
tholic	-7818
thropo	-7819
vatory	-7820
ènìyàn	-7821
ṣakoso	-7822
▁1981.	-7823
▁1984.	-7824
▁1987.	-7825
▁1991.	-7826
▁1996.	-7827
▁2002,	-7828
▁Adesu	-7829
▁Agnes	-7830
▁Akowe	-7831
▁Bantu	-7832
▁Brown	-7833
▁Bọ́lá	-7834
▁Davis	-7835
▁Drama	-7836
▁First	-7837
▁Frank	-7838
▁Gbágù	-7839
▁Geesi	-7840
▁Honey	-7841
▁Hospi	-7842
▁Inter	-7843
▁Itọju	-7844
▁Jesus	-7845
▁Jones	-7846
▁Kurdi	-7847
▁Kòréà	-7848
▁Kẹrìn	-7849
▁Louis	-7850
▁Lákòó	-7851
▁Marku	-7852
▁Niava	-7853
▁Olori	-7854
▁Orisi	-7855
▁Punch	-7856
▁Repre	-7857
▁Sadau	-7858
▁Spain	-7859
▁Stock	-7860
▁Sàmóà	-7861
▁White	-7862
▁Young	-7863
▁Youth	-7864
▁abara	-7865
▁adapo	-7866
▁akewi	-7867
▁akowe	-7868
▁alejo	-7869
▁amóhù	-7870
▁asoju	-7871
▁ayeye	-7872
▁bakan	-7873
▁dáwọ́	-7874
▁dídùn	-7875
▁dínkù	-7876
▁ekeji	-7877
▁erékù	-7878
▁fídíò	-7879
▁fífún	-7880
▁gboye	-7881
▁gbèrò	-7882
▁idiye	-7883
▁ifoju	-7884
▁ifọrọ	-7885
▁itoju	-7886
▁iyato	-7887
▁iyatọ	-7888
▁iṣoro	-7889
▁iṣowo	-7890
▁kinni	-7891
▁kokan	-7892
▁kárùn	-7893
▁kíkan	-7894
▁lodun	-7895
▁lágbo	-7896
▁nwaye	-7897
▁nígba	-7898
▁ododo	-7899
▁odomo	-7900
▁okere	-7901
▁olùdá	-7902
▁olùwà	-7903
▁onide	-7904
▁osupa	-7905
▁oṣiṣẹ	-7906
▁pipin	-7907
▁rédíò	-7908
▁rọrùn	-7909
▁tààrà	-7910
▁Àgbọn	-7911
▁àbísọ	-7912
▁àgbọn	-7913
▁àárẹ̀	-7914
▁ètùtù	-7915
▁è̟tó̟	-7916
▁ìkejì	-7917
▁ìletò	-7918
▁ìsòro	-7919
▁òkúta	-7920
▁òsèlú	-7921
▁ẹ̀yìn	-7922
▁Ọ̀kàn	-7923
▁Ọ̀rún	-7924
▁ọ̀fun	-7925
▁ọ̀gbẹ	-7926
▁ọ̀tun	-7927
Nigeria	-7928
dipúpọ̀	-7929
ecutive	-7930
erekusu	-7931
gbòlugi	-7932
gbẹ̀rún	-7933
hìnrere	-7934
munisti	-7935
ọláṣadé	-7936
▁10,000	-7937
▁Abiola	-7938
▁Choice	-7939
▁Christ	-7940
▁Daniel	-7941
▁Elendu	-7942
▁Eléyìí	-7943
▁France	-7944
▁Guinea	-7945
▁Gẹgẹbi	-7946
▁Howard	-7947
▁Láàrin	-7948
▁Rivers	-7949
▁Sandra	-7950
▁agbajo	-7951
▁alagbe	-7952
▁alaisi	-7953
▁amohun	-7954
▁amòfin	-7955
▁apakan	-7956
▁atọ́ka	-7957
▁aworan	-7958
▁darapọ	-7959
▁eranko	-7960
▁gbàmìn	-7961
▁ijamba	-7962
▁ipinnu	-7963
▁lorile	-7964
▁mẹ́sàn	-7965
▁nibiti	-7966
▁nọ́mbà	-7967
▁ojuami	-7968
▁omoomo	-7969
▁pẹ̀pẹ̀	-7970
▁tíọ́rì	-7971
▁àtìgbà	-7972
▁ìbátan	-7973
▁ìdánwò	-7974
▁ìjàmbá	-7975
▁òkèèrè	-7976
▁ṣẹ̀ṣẹ̀	-7977
▁ẹ̀wọ̀n	-7978
gbólóhùn	-7979
gọ̀ọ̀rọ̀	-7980
lẹ́kọ̀ọ́	-7981
lọ́gbọ̀n	-7982
sọ̀ọ̀sẹ̀	-7983
àgbéléwò	-7984
ọ́bẹ̀rẹ̀	-7985
▁Actress	-7986
▁Agricul	-7987
▁Angeles	-7988
▁Ashanti	-7989
▁Badagry	-7990
▁Britain	-7991
▁Central	-7992
▁Frances	-7993
▁General	-7994
▁Kọkànlá	-7995
▁Lincoln	-7996
▁Moshood	-7997
▁Nicolas	-7998
▁Olúṣínà	-7999
▁Viewers	-8000
▁Wikipẹ́	-8001
▁alákóso	-8002
▁alángbá	-8003
▁alátakò	-8004
▁alátẹnu	-8005
▁apilese	-8006
▁asiwaju	-8007
▁eekanna	-8008
▁fairọsi	-8009
▁káríayé	-8010
▁látọwọ́	-8011
▁ojuorun	-8012
▁okunrin	-8013
▁olúborí	-8014
▁parapọ̀	-8015
▁polongo	-8016
▁Àkàngbé	-8017
▁ìṣọ̀kan	-8018
▁ẹlẹ́sìn	-8019
▁ọgọ́rin	-8020
▁ọlọ́pàá	-8021
▁ọrundun	-8022
▁Akínlàdé	-8023
▁Economic	-8024
▁European	-8025
▁Harcourt	-8026
▁Igbakeji	-8027
▁Japanese	-8028
▁Lowolowo	-8029
▁Obasanjo	-8030
▁Sibẹsibẹ	-8031
▁Standard	-8032
▁Tanzania	-8033
▁ayeijoun	-8034
▁bẹ́ẹ̀rẹ̀	-8035
▁daradara	-8036
▁elimenti	-8037
▁igbakeji	-8038
▁igbeyawo	-8039
▁igbonasi	-8040
▁mùsùlùmí	-8041
▁mọ̀lẹ́bí	-8042
▁olùgbéré	-8043
▁olùkọ́ni	-8044
▁pàràkòyí	-8045
▁syndrome	-8046
▁sáfẹ́fẹ́	-8047
▁àtẹ̀jáde	-8048
▁ìbálòpọ̀	-8049
▁ìdásílẹ̀	-8050
▁ìmọ̀lára	-8051
▁ìmọ́tótó	-8052
dínlógbọ̀n	-8053
▁Olominira	-8054
▁alominira	-8055
▁arábìnrin	-8056
▁elédùmarè	-8057
▁kọ́kọ́rọ́	-8058
▁lámèyítọ́	-8059
▁olominira	-8060
▁orísirísi	-8061
▁ìtànkálẹ̀	-8062
dínlọ́gọ́ta	-8063
▁Botilejepe	-8064
▁Representa	-8065
▁laringotra	-8066
▁mẹ́tàdínló	-8067
▁àbígbẹ̀yìn	-8068
▁àmbásẹ́dọ̀	-8069
▁àtẹnudẹ́nu	-8070
armaceutical	-8071
ministration	-8072
▁Engineering	-8073
▁forúkọsílẹ̀	-8074
▁mẹ́rìnléláà	-8075
▁kọkànlélógún	-8076
▁méjìlélọ́gọ́	-8077
▁kẹrìndínlógún	-8078
-1	-8079
1)	-8080
CT	-8081
FA	-8082
FF	-8083
HO	-8084
MW	-8085
PD	-8086
Ti	-8087
WS	-8088
ab	-8089
af	-8090
bl	-8091
ik	-8092
iz	-8093
ng	-8094
rn	-8095
rę	-8096
yu	-8097
̟.	-8098
̟ò	-8099
”,	-8100
:00	-8101
Gre	-8102
IDS	-8103
ISA	-8104
Ise	-8105
JẸ̀	-8106
Mas	-8107
aló	-8108
amo	-8109
ará	-8110
ath	-8111
ató	-8112
aṣẹ	-8113
bas	-8114
bii	-8115
bil	-8116
dle	-8117
duà	-8118
eke	-8119
ewu	-8120
gap	-8121
gwu	-8122
gúà	-8123
har	-8124
hat	-8125
her	-8126
hio	-8127
háń	-8128
igi	-8129
ign	-8130
iro	-8131
jes	-8132
kal	-8133
kó̟	-8134
kùú	-8135
kọọ	-8136
lub	-8137
lík	-8138
lòó	-8139
mat	-8140
mii	-8141
now	-8142
ogo	-8143
ole	-8144
osi	-8145
oum	-8146
out	-8147
oyè	-8148
pox	-8149
pri	-8150
ret	-8151
rìa	-8152
sho	-8153
ska	-8154
stì	-8155
ues	-8156
ulo	-8157
uts	-8158
zed	-8159
Òkè	-8160
ádà	-8161
ìgì	-8162
ìná	-8163
ìwò	-8164
ímù	-8165
írò	-8166
úko	-8167
ęrę	-8168
ńtà	-8169
ẹrọ	-8170
▁(5	-8171
▁AD	-8172
▁Aw	-8173
▁Aá	-8174
▁Ci	-8175
▁IB	-8176
▁IL	-8177
▁If	-8178
▁Ir	-8179
▁MO	-8180
▁OL	-8181
▁Vo	-8182
▁Yv	-8183
▁fu	-8184
▁go	-8185
▁gó	-8186
▁lú	-8187
▁nọ	-8188
▁ph	-8189
▁ru	-8190
▁wó	-8191
▁yò	-8192
▁Àn	-8193
▁àm	-8194
▁ìm	-8195
▁ò̟	-8196
▁Ṣe	-8197
▁ṣù	-8198
aily	-8199
amin	-8200
arar	-8201
bajo	-8202
bian	-8203
bila	-8204
bori	-8205
bule	-8206
bìtì	-8207
bími	-8208
bùdó	-8209
cipe	-8210
disi	-8211
dodo	-8212
dèrú	-8213
dòtí	-8214
emen	-8215
endu	-8216
etta	-8217
faní	-8218
fipá	-8219
folo	-8220
gala	-8221
gana	-8222
geni	-8223
giga	-8224
gola	-8225
gori	-8226
géjẹ	-8227
hara	-8228
ight	-8229
ilẹ̀	-8230
ipin	-8231
irin	-8232
itan	-8233
jani	-8234
jiji	-8235
jini	-8236
jumo	-8237
jọbí	-8238
kaye	-8239
kede	-8240
keyi	-8241
kojú	-8242
kúrú	-8243
lami	-8244
leon	-8245
lidi	-8246
lied	-8247
list	-8248
làní	-8249
lékè	-8250
límà	-8251
lúfá	-8252
lúwà	-8253
mika	-8254
mins	-8255
mola	-8256
mund	-8257
mílà	-8258
mùtí	-8259
mọye	-8260
nfẹ́	-8261
nusọ	-8262
onto	-8263
ough	-8264
pala	-8265
pilẹ	-8266
poli	-8267
pton	-8268
pólà	-8269
remí	-8270
rira	-8271
robi	-8272
rugẹ	-8273
ràkí	-8274
ròrò	-8275
sara	-8276
siti	-8277
stel	-8278
stru	-8279
sílè	-8280
tect	-8281
terf	-8282
tiba	-8283
tiki	-8284
tito	-8285
tona	-8286
tosi	-8287
trea	-8288
trep	-8289
tteu	-8290
ttor	-8291
tutu	-8292
tènì	-8293
tíkù	-8294
tọjú	-8295
ular	-8296
urus	-8297
urọ̀	-8298
vhan	-8299
wale	-8300
work	-8301
yira	-8302
áfíà	-8303
ónìí	-8304
ṣìṣe	-8305
ẹ̀jì	-8306
ẹ̀mí	-8307
ẹ́dá	-8308
ẹ́rí	-8309
ọjọ́	-8310
ọ̀mí	-8311
ọ́kà	-8312
ọ́nú	-8313
▁12,	-8314
▁25,	-8315
▁26,	-8316
▁Aga	-8317
▁Ais	-8318
▁Ame	-8319
▁Amú	-8320
▁Ana	-8321
▁Ata	-8322
▁Ath	-8323
▁Bak	-8324
▁Bea	-8325
▁Boa	-8326
▁Bor	-8327
▁Bọ́	-8328
▁CNN	-8329
▁Cap	-8330
▁Cat	-8331
▁Cle	-8332
▁Cru	-8333
▁Dis	-8334
▁Doc	-8335
▁Dun	-8336
▁Fan	-8337
▁GNU	-8338
▁Gal	-8339
▁Hea	-8340
▁Ifa	-8341
▁Iku	-8342
▁Ilà	-8343
▁Ilẹ	-8344
▁Ipo	-8345
▁Isi	-8346
▁Jem	-8347
▁Jus	-8348
▁Kom	-8349
▁Lun	-8350
▁Mek	-8351
▁Ngu	-8352
▁Nsu	-8353
▁Old	-8354
▁Ona	-8355
▁Oyé	-8356
▁Pal	-8357
▁Pon	-8358
▁Sai	-8359
▁Sti	-8360
▁Swi	-8361
▁Swí	-8362
▁Sẹ́	-8363
▁Umu	-8364
▁Val	-8365
▁Zam	-8366
▁abá	-8367
▁adú	-8368
▁afá	-8369
▁ají	-8370
▁atí	-8371
▁ayọ	-8372
▁der	-8373
▁díè	-8374
▁etí	-8375
▁ewa	-8376
▁ewi	-8377
▁fir	-8378
▁fíl	-8379
▁fín	-8380
▁ibò	-8381
▁ikẹ	-8382
▁ilọ	-8383
▁imm	-8384
▁iti	-8385
▁itẹ	-8386
▁iwé	-8387
▁iwọ	-8388
▁iyọ	-8389
▁iṣu	-8390
▁ken	-8391
▁nàá	-8392
▁oje	-8393
▁ojà	-8394
▁orú	-8395
▁ose	-8396
▁pen	-8397
▁pri	-8398
▁res	-8399
▁stu	-8400
▁tóó	-8401
▁van	-8402
▁yóó	-8403
▁yẹ́	-8404
▁Àbú	-8405
▁Àpè	-8406
▁Àti	-8407
▁Àwo	-8408
▁Árá	-8409
▁Ìbò	-8410
▁Ìmú	-8411
▁Ìya	-8412
▁Òde	-8413
▁Òpò	-8414
▁àgí	-8415
▁àkà	-8416
▁àlá	-8417
▁àná	-8418
▁áti	-8419
▁èjì	-8420
▁èmí	-8421
▁èyì	-8422
▁ìdì	-8423
▁ìkó	-8424
▁ìsi	-8425
▁òfì	-8426
▁òwú	-8427
▁ńlọ	-8428
▁ẹda	-8429
▁ẹmi	-8430
▁ẹmu	-8431
▁ẹní	-8432
▁ọfi	-8433
▁ọti	-8434
Auley	-8435
adọta	-8436
atóka	-8437
board	-8438
bster	-8439
bàjẹ́	-8440
bọọlu	-8441
dìgbo	-8442
dùnní	-8443
dẹ́lì	-8444
edera	-8445
finmu	-8446
geesi	-8447
geria	-8448
glass	-8449
gunwa	-8450
gúnwà	-8451
ijoba	-8452
inois	-8453
ister	-8454
júmọ̀	-8455
kanra	-8456
kunle	-8457
labor	-8458
landi	-8459
laude	-8460
llahi	-8461
lower	-8462
légbé	-8463
límẹ̀	-8464
mooka	-8465
mouth	-8466
mycin	-8467
mọ́ná	-8468
onald	-8469
orial	-8470
ought	-8471
pagba	-8472
parẹ́	-8473
patra	-8474
rough	-8475
rísìí	-8476
setts	-8477
takun	-8478
thers	-8479
túndé	-8480
túnjí	-8481
vance	-8482
wives	-8483
wosan	-8484
yọ̀sí	-8485
àngbà	-8486
ẹgbẹ́	-8487
ẹ́gùn	-8488
ọbajẹ	-8489
ọ́rọ̀	-8490
▁1821	-8491
▁1830	-8492
▁1864	-8493
▁1865	-8494
▁1883	-8495
▁1917	-8496
▁1919	-8497
▁1923	-8498
▁1924	-8499
▁1928	-8500
▁1939	-8501
▁1942	-8502
▁AIDS	-8503
▁Agbẹ	-8504
▁Anne	-8505
▁Atọ́	-8506
▁Base	-8507
▁Beat	-8508
▁Cala	-8509
▁Cast	-8510
▁Cole	-8511
▁Dead	-8512
▁Ethi	-8513
▁Fire	-8514
▁Flor	-8515
▁Fore	-8516
▁Hali	-8517
▁Indo	-8518
▁Irin	-8519
▁Jere	-8520
▁Long	-8521
▁Lóòó	-8522
▁Mark	-8523
▁Mont	-8524
▁More	-8525
▁Most	-8526
▁M̀bá	-8527
▁Naka	-8528
▁Napo	-8529
▁Nils	-8530
▁Nínu	-8531
▁Ohùn	-8532
▁Osin	-8533
▁Pana	-8534
▁Pati	-8535
▁Poli	-8536
▁Pópó	-8537
▁Roof	-8538
▁Scri	-8539
▁This	-8540
▁Wild	-8541
▁With	-8542
▁Yaku	-8543
▁aago	-8544
▁adùn	-8545
▁akín	-8546
▁bili	-8547
▁budo	-8548
▁buru	-8549
▁coun	-8550
▁dudu	-8551
▁dupò	-8552
▁dáyé	-8553
▁dòní	-8554
▁egbo	-8555
▁egbé	-8556
▁ekun	-8557
▁eyan	-8558
▁fifa	-8559
▁from	-8560
▁game	-8561
▁gorí	-8562
▁gẹ́g	-8563
▁heli	-8564
▁iyẹ̀	-8565
▁jijẹ	-8566
▁kiki	-8567
▁kálu	-8568
▁kárà	-8569
▁kété	-8570
▁kíní	-8571
▁kò̟ò	-8572
▁lapa	-8573
▁lókè	-8574
▁lẹsẹ	-8575
▁méta	-8576
▁mẹjọ	-8577
▁mẹwa	-8578
▁oval	-8579
▁pani	-8580
▁papọ	-8581
▁puro	-8582
▁pẹni	-8583
▁ropo	-8584
▁rẹwà	-8585
▁sere	-8586
▁seyo	-8587
▁sing	-8588
▁síta	-8589
▁sọrọ	-8590
▁tabí	-8591
▁tayọ	-8592
▁tile	-8593
▁toyẹ	-8594
▁tumọ	-8595
▁tẹle	-8596
▁unpe	-8597
▁wolé	-8598
▁wopo	-8599
▁wo̟n	-8600
▁wákà	-8601
▁wúrà	-8602
▁wọle	-8603
▁Àyàn	-8604
▁Òhun	-8605
▁àgùn	-8606
▁àrín	-8607
▁àìrí	-8608
▁ìgbò	-8609
▁ìjọ́	-8610
▁ìkẹ́	-8611
▁Ṣíṣe	-8612
▁ṣàmú	-8613
▁ṣíṣà	-8614
▁ṣẹda	-8615
▁ṣẹlẹ	-8616
▁Ẹfún	-8617
▁Ẹ̀rọ	-8618
▁ẹ̀bá	-8619
▁ọ̀sà	-8620
00,000	-8621
anuatu	-8622
bọ̀tán	-8623
ertifi	-8624
foloke	-8625
frican	-8626
gapore	-8627
gbàáyé	-8628
jẹrisi	-8629
kẹ́yìn	-8630
kọbẹrẹ	-8631
kọ̀tún	-8632
laraya	-8633
olling	-8634
sọ́tọ̀	-8635
ulture	-8636
ṣẹ̀ṣẹ̀	-8637
ẹ́ẹ̀tì	-8638
▁1960.	-8639
▁1966.	-8640
▁1978.	-8641
▁1980.	-8642
▁1991,	-8643
▁1993.	-8644
▁1994.	-8645
▁1996,	-8646
▁1999,	-8647
▁2000,	-8648
▁2003.	-8649
▁2005.	-8650
▁Ahmad	-8651
▁Alaga	-8652
▁Alber	-8653
▁Aládé	-8654
▁Carol	-8655
▁Chris	-8656
▁Court	-8657
▁Cyril	-8658
▁Daily	-8659
▁Doyin	-8660
▁Forum	-8661
▁Funda	-8662
▁Gbọ̀n	-8663
▁Grace	-8664
▁Guild	-8665
▁Idani	-8666
▁Initi	-8667
▁Isiro	-8668
▁Journ	-8669
▁Kings	-8670
▁Lehin	-8671
▁Lewis	-8672
▁Metro	-8673
▁Mossi	-8674
▁Nẹ́dá	-8675
▁Olowo	-8676
▁Omalu	-8677
▁Order	-8678
▁Pomba	-8679
▁Prime	-8680
▁Rober	-8681
▁Rédíò	-8682
▁Sarah	-8683
▁Solom	-8684
▁Space	-8685
▁Stars	-8686
▁Sátọ́	-8687
▁Tropi	-8688
▁Yemen	-8689
▁Yugos	-8690
▁abele	-8691
▁agbẹ̀	-8692
▁akéwì	-8693
▁aláwò	-8694
▁apere	-8695
▁aroko	-8696
▁atijo	-8697
▁atijọ	-8698
▁boolu	-8699
▁dáàbò	-8700
▁elero	-8701
▁feyin	-8702
▁fíìmú	-8703
▁fúnni	-8704
▁gbájú	-8705
▁ibamu	-8706
▁ibiti	-8707
▁idajo	-8708
▁iyara	-8709
▁kikan	-8710
▁kẹsan	-8711
▁laisi	-8712
▁legbe	-8713
▁láìsí	-8714
▁léyìn	-8715
▁media	-8716
▁nsaba	-8717
▁nìgbà	-8718
▁ogbin	-8719
▁ojuse	-8720
▁okuta	-8721
▁olomi	-8722
▁oloro	-8723
▁oluso	-8724
▁olómi	-8725
▁omowe	-8726
▁pẹ́lú	-8727
▁ranti	-8728
▁sáájú	-8729
▁sẹẹli	-8730
▁white	-8731
▁yiyan	-8732
▁Àjàyí	-8733
▁Ìdíje	-8734
▁Ìkòyí	-8735
▁àgbọ́	-8736
▁àkóbá	-8737
▁àkóso	-8738
▁àwàdà	-8739
▁àyàfi	-8740
▁àárọ̀	-8741
▁álúfá	-8742
▁ìbámu	-8743
▁ìfipá	-8744
▁ìfìwé	-8745
▁ìkàwé	-8746
▁ìpèsè	-8747
▁ìpéjọ	-8748
▁ìrísí	-8749
▁ìsọmọ	-8750
▁ìtumò	-8751
▁ìwádí	-8752
▁òṣeré	-8753
▁únjẹ́	-8754
▁ṣàngó	-8755
▁ṣááju	-8756
▁Ẹ̀sìn	-8757
▁ẹ̀fẹ̀	-8758
▁ẹ̀kún	-8759
▁Ọlájù	-8760
▁ọ̀tẹ̀	-8761
African	-8762
bánirọ̀	-8763
bímitán	-8764
dinlogo	-8765
eration	-8766
líkọ́nù	-8767
lẹ́ẹ̀jì	-8768
mítíìkì	-8769
nfẹ́ṣọ́	-8770
rinidad	-8771
ttorney	-8772
▁Agbara	-8773
▁Ahmadu	-8774
▁Amẹ́rí	-8775
▁Angola	-8776
▁Beauty	-8777
▁Benson	-8778
▁Cannes	-8779
▁Centre	-8780
▁Concer	-8781
▁Consul	-8782
▁Fúlàní	-8783
▁Giriki	-8784
▁Indust	-8785
▁Kanada	-8786
▁Kánádà	-8787
▁Kòkòrò	-8788
▁Kẹ́nyà	-8789
▁Leader	-8790
▁Matteu	-8791
▁Muvhan	-8792
▁Olófìn	-8793
▁Paradi	-8794
▁Pàtàkì	-8795
▁Rwanda	-8796
▁Secret	-8797
▁Social	-8798
▁Thomas	-8799
▁Travel	-8800
▁Turner	-8801
▁Tọ́pẹ́	-8802
▁agbáyé	-8803
▁akoran	-8804
▁aládàá	-8805
▁aládùn	-8806
▁alágbá	-8807
▁apẹẹrẹ	-8808
▁awakọ̀	-8809
▁diphth	-8810
▁dírámà	-8811
▁engine	-8812
▁fẹ̀yìn	-8813
▁idanwo	-8814
▁igbega	-8815
▁igbera	-8816
▁igboro	-8817
▁ileoba	-8818
▁intern	-8819
▁koríko	-8820
▁kòrónà	-8821
▁kẹsàán	-8822
▁kẹ́yìn	-8823
▁kọ́lọ́	-8824
▁kọ́ṣẹ́	-8825
▁latodo	-8826
▁lọ́kàn	-8827
▁mìíran	-8828
▁mẹ́tẹ̀	-8829
▁olugba	-8830
▁orírun	-8831
▁orísìí	-8832
▁padanu	-8833
▁siwájú	-8834
▁sọ́tọ̀	-8835
▁yípadà	-8836
▁Àdùnní	-8837
▁Ìlọrin	-8838
▁Òyìnbó	-8839
▁àdínkù	-8840
▁àhámọ́	-8841
▁ànfàní	-8842
▁ìfọwọ́	-8843
▁ìgbani	-8844
▁ìgboro	-8845
▁ìlọ́po	-8846
▁ìpinnu	-8847
▁ìyàtọ̀	-8848
▁ṣiṣunu	-8849
▁ṣàkóso	-8850
▁ẹ̀gbẹ́	-8851
▁Ọgbọ́n	-8852
▁ọfiisi	-8853
February	-8854
chusetts	-8855
ctionary	-8856
fẹ̀yìntì	-8857
joojúmọ́	-8858
ological	-8859
pporting	-8860
terature	-8861
▁Affairs	-8862
▁Agbègbè	-8863
▁Agígírì	-8864
▁Agígírí	-8865
▁Brother	-8866
▁Bọ́ọ̀lù	-8867
▁Certifi	-8868
▁Company	-8869
▁Fagunwa	-8870
▁Folayan	-8871
▁Fágúnwà	-8872
▁Harvard	-8873
▁Ifáfitì	-8874
▁Jamaica	-8875
▁Kúrunmí	-8876
▁Mission	-8877
▁Network	-8878
▁Ojuorun	-8879
▁Olùdarí	-8880
▁Peoples	-8881
▁Station	-8882
▁Tẹlifíṣ	-8883
▁afọbajẹ	-8884
▁ajẹsara	-8885
▁alatako	-8886
▁alákòso	-8887
▁amọ̀fin	-8888
▁anfaani	-8889
▁arinajo	-8890
▁atẹ́gùn	-8891
▁eyikeyi	-8892
▁ifáfitì	-8893
▁igberin	-8894
▁ipolowo	-8895
▁iṣelọpọ	-8896
▁kokanla	-8897
▁kẹ́míkà	-8898
▁nigbana	-8899
▁ogúnjọ́	-8900
▁oludasi	-8901
▁onibise	-8902
▁orisiri	-8903
▁àǹfààní	-8904
▁àṣeyọrí	-8905
▁ìrọ̀lẹ́	-8906
▁òǹkọ̀wé	-8907
▁ẹnubodè	-8908
▁ọlọ́jọ́	-8909
▁ọ̀dọ́mọ	-8910
formation	-8911
▁Anderson	-8912
▁Broadcas	-8913
▁Champion	-8914
▁Douglass	-8915
▁Football	-8916
▁Illinois	-8917
▁Internet	-8918
▁Magazine	-8919
▁Montreal	-8920
▁Napoleon	-8921
▁Osinbajo	-8922
▁Patricia	-8923
▁Savannah	-8924
▁Sibesibe	-8925
▁Veronica	-8926
▁adúláwọ̀	-8927
▁akíkanjú	-8928
▁amúnisìn	-8929
▁gbiyanju	-8930
▁ibaraeni	-8931
▁kò̟ò̟kan	-8932
▁litireso	-8933
▁lágbàáyé	-8934
▁múnádóko	-8935
▁mọ́dẹ́lì	-8936
▁oniwosan	-8937
▁oríṣríṣi	-8938
▁puroteni	-8939
▁tesiwaju	-8940
▁tẹsiwaju	-8941
▁Àjàkálẹ̀	-8942
▁Ìgbómìnà	-8943
▁ìdánimọ̀	-8944
▁Abdullahi	-8945
▁Cambridge	-8946
▁Cleopatra	-8947
▁Electoral	-8948
▁Frederick	-8949
▁Hollywood	-8950
▁Kristiẹni	-8951
▁Singapore	-8952
▁agbalagba	-8953
▁alawodudu	-8954
▁bakiteria	-8955
▁lítíréṣọ̀	-8956
▁olómìnira	-8957
▁àtúnyẹ̀wò	-8958
▁ìlọsíwájú	-8959
▁ìṣẹ̀dálẹ̀	-8960
▁ọ̀rúnmìlà	-8961
nfẹ́ṣọ́ọ̀nù	-8962
▁Dictionary	-8963
▁Panafrican	-8964
▁Production	-8965
▁agbéréjáde	-8966
▁bẹ́ẹ̀bẹ́ẹ̀	-8967
▁diphtheria	-8968
▁nukleotidi	-8969
▁pẹnisilini	-8970
▁sosialisti	-8971
▁takuntakun	-8972
▁Ìfowópamọ́	-8973
▁ìlúmọ̀ọ́kà	-8974
▁Ouagadougou	-8975
▁alagedemeji	-8976
▁kẹtàlélógún	-8977
▁mathimatiki	-8978
▁Broadcasting	-8979
▁Jẹ̀dọ̀jẹ̀dọ̀	-8980
▁Professional	-8981
▁afefeojuorun	-8982
▁kẹrìnlélógún	-8983
▁mẹ́ẹ̀ẹ́dógún	-8984
▁Massachusetts	-8985
▁Communications	-8986
▁kẹtàdínlọ́gbọ̀n	-8987
▁kọkànlélọ́gbọ̀n	-8988
";	-8989
',	-8990
,"	-8991
,.	-8992
-5	-8993
.7	-8994
.”	-8995
/5	-8996
EC	-8997
FI	-8998
HE	-8999
Iv	-9000
JẸ	-9001
LC	-9002
Lá	-9003
Mi	-9004
PS	-9005
RA	-9006
Ri	-9007
SC	-9008
TM	-9009
ae	-9010
bh	-9011
ey	-9012
fó	-9013
iò	-9014
ml	-9015
ns	-9016
ot	-9017
oṣ	-9018
rb	-9019
vu	-9020
ír	-9021
ńí	-9022
̀a	-9023
̣̣	-9024
ṣ̀	-9025
Ọ́	-9026
/5/	-9027
00)	-9028
00.	-9029
:11	-9030
Bar	-9031
CoV	-9032
GBÁ	-9033
GBÓ	-9034
Ibi	-9035
Ilé	-9036
NES	-9037
Olú	-9038
Rai	-9039
WER	-9040
agu	-9041
aje	-9042
arọ	-9043
ato	-9044
ben	-9045
bid	-9046
bir	-9047
bsi	-9048
bum	-9049
cht	-9050
coc	-9051
dda	-9052
ded	-9053
dem	-9054
don	-9055
dow	-9056
dáà	-9057
díá	-9058
eek	-9059
eli	-9060
elo	-9061
ews	-9062
ffo	-9063
fio	-9064
fos	-9065
gne	-9066
gri	-9067
hed	-9068
idi	-9069
ikh	-9070
ilè	-9071
iri	-9072
ith	-9073
iṣé	-9074
jer	-9075
jon	-9076
kai	-9077
ket	-9078
kle	-9079
lip	-9080
log	-9081
lon	-9082
lus	-9083
láń	-9084
lóò	-9085
mah	-9086
mor	-9087
naa	-9088
nẹ́	-9089
nọ̀	-9090
olé	-9091
oms	-9092
oog	-9093
oop	-9094
ppa	-9095
qui	-9096
rio	-9097
rug	-9098
sei	-9099
sim	-9100
soo	-9101
sou	-9102
sto	-9103
syn	-9104
tei	-9105
tia	-9106
tri	-9107
tti	-9108
tín	-9109
tùú	-9110
uan	-9111
uga	-9112
ult	-9113
uss	-9114
vah	-9115
var	-9116
vas	-9117
via	-9118
wal	-9119
wón	-9120
wó̟	-9121
yya	-9122
zid	-9123
Ìlá	-9124
Òde	-9125
ánu	-9126
èlò	-9127
ère	-9128
édè	-9129
éri	-9130
ìlù	-9131
ìsí	-9132
íkà	-9133
íná	-9134
ùrù	-9135
údú	-9136
ṣia	-9137
ṣán	-9138
ẹrú	-9139
–18	-9140
–19	-9141
▁4,	-9142
▁4.	-9143
▁8,	-9144
▁91	-9145
▁AL	-9146
▁BC	-9147
▁Ce	-9148
▁Cl	-9149
▁Cu	-9150
▁Dy	-9151
▁Gé	-9152
▁Já	-9153
▁MI	-9154
▁NY	-9155
▁Ny	-9156
▁Oa	-9157
▁Pá	-9158
▁Pí	-9159
▁Rò	-9160
▁SI	-9161
▁Só	-9162
▁Sù	-9163
▁Tì	-9164
▁Tú	-9165
▁UN	-9166
▁Ve	-9167
▁Wí	-9168
▁YA	-9169
▁bù	-9170
▁ci	-9171
▁gú	-9172
▁nù	-9173
▁nǹ	-9174
▁oo	-9175
▁oò	-9176
▁sm	-9177
▁va	-9178
▁wé	-9179
▁Òn	-9180
▁àk	-9181
▁àw	-9182
▁ìk	-9183
▁òp	-9184
▁Ṣi	-9185
▁Ṣá	-9186
-19.	-9187
2007	-9188
Hung	-9189
Ivoi	-9190
adri	-9191
anta	-9192
anís	-9193
aruq	-9194
asco	-9195
bari	-9196
bele	-9197
bles	-9198
boro	-9199
buta	-9200
báyé	-9201
bíye	-9202
cene	-9203
cent	-9204
dern	-9205
ders	-9206
dion	-9207
dium	-9208
díiò	-9209
dóje	-9210
dọjẹ	-9211
elds	-9212
enda	-9213
enta	-9214
esta	-9215
face	-9216
foji	-9217
fọ́n	-9218
gani	-9219
gawa	-9220
gbèé	-9221
gbòò	-9222
gbún	-9223
geal	-9224
gent	-9225
gers	-9226
gira	-9227
gudu	-9228
gògó	-9229
gẹmọ	-9230
hòhò	-9231
inic	-9232
ists	-9233
isẹ́	-9234
ites	-9235
jale	-9236
jana	-9237
janu	-9238
jeri	-9239
jile	-9240
joyè	-9241
jèbú	-9242
jèlé	-9243
kins	-9244
kora	-9245
kèrè	-9246
kóbá	-9247
kúpa	-9248
laba	-9249
lame	-9250
lass	-9251
layé	-9252
leru	-9253
liba	-9254
lies	-9255
liki	-9256
liot	-9257
lock	-9258
logi	-9259
loph	-9260
lopọ	-9261
lory	-9262
loye	-9263
lébé	-9264
lódì	-9265
lẹjẹ	-9266
mers	-9267
mira	-9268
miti	-9269
moon	-9270
mósó	-9271
mọde	-9272
nard	-9273
nder	-9274
nish	-9275
ogbo	-9276
olof	-9277
oman	-9278
ombo	-9279
ombu	-9280
omer	-9281
omet	-9282
onia	-9283
onis	-9284
pire	-9285
pora	-9286
posi	-9287
reek	-9288
riba	-9289
ripe	-9290
rong	-9291
ronu	-9292
rárà	-9293
rìín	-9294
ríkì	-9295
ríkú	-9296
rísì	-9297
róyè	-9298
rùlé	-9299
sejù	-9300
side	-9301
siki	-9302
sina	-9303
siri	-9304
stri	-9305
suna	-9306
sìni	-9307
síkò	-9308
sọtọ	-9309
taja	-9310
thed	-9311
thew	-9312
tist	-9313
toto	-9314
toye	-9315
tumo	-9316
tunu	-9317
tòjọ	-9318
tùmò	-9319
tútù	-9320
tẹlẹ	-9321
umba	-9322
umor	-9323
undi	-9324
vels	-9325
vina	-9326
wosi	-9327
wádí	-9328
wùja	-9329
wúrà	-9330
yedè	-9331
yeye	-9332
yper	-9333
yára	-9334
ziri	-9335
àrún	-9336
àrọ̀	-9337
ántì	-9338
árọ̀	-9339
ìwọ̀	-9340
ìṣẹ́	-9341
ùgbà	-9342
̟wó̟	-9343
ṣere	-9344
ẹ́tì	-9345
ọ́ba	-9346
▁17,	-9347
▁24,	-9348
▁Ajá	-9349
▁Ajé	-9350
▁Alo	-9351
▁Aro	-9352
▁Aré	-9353
▁Aró	-9354
▁Arù	-9355
▁Aso	-9356
▁Ató	-9357
▁Bat	-9358
▁Baà	-9359
▁Bee	-9360
▁Big	-9361
▁Bob	-9362
▁Bou	-9363
▁But	-9364
▁Dur	-9365
▁Ebi	-9366
▁Egi	-9367
▁Ego	-9368
▁Elu	-9369
▁Eth	-9370
▁Ewé	-9371
▁Fri	-9372
▁Gor	-9373
▁Gru	-9374
▁Gẹ̀	-9375
▁HCV	-9376
▁Hal	-9377
▁How	-9378
▁Imu	-9379
▁Jor	-9380
▁Jos	-9381
▁Jum	-9382
▁Kel	-9383
▁Kou	-9384
▁Kun	-9385
▁Let	-9386
▁Luk	-9387
▁Nel	-9388
▁Nou	-9389
▁Now	-9390
▁Nwo	-9391
▁Oye	-9392
▁Pai	-9393
▁Pol	-9394
▁Rai	-9395
▁Ran	-9396
▁Rat	-9397
▁Reg	-9398
▁Run	-9399
▁Sas	-9400
▁Sim	-9401
▁Ski	-9402
▁Smo	-9403
▁Swa	-9404
▁Sáú	-9405
▁Tre	-9406
▁Two	-9407
▁Tàn	-9408
▁WTA	-9409
▁Wol	-9410
▁Zou	-9411
▁abé	-9412
▁adé	-9413
▁ajà	-9414
▁amá	-9415
▁apà	-9416
▁aru	-9417
▁ata	-9418
▁atu	-9419
▁bro	-9420
▁bub	-9421
▁cha	-9422
▁dis	-9423
▁est	-9424
▁isi	-9425
▁isẹ	-9426
▁kor	-9427
▁kró	-9428
▁kèn	-9429
▁kìn	-9430
▁lán	-9431
▁láé	-9432
▁min	-9433
▁nda	-9434
▁nje	-9435
▁nka	-9436
▁npè	-9437
▁obì	-9438
▁one	-9439
▁orì	-9440
▁oùn	-9441
▁pan	-9442
▁paá	-9443
▁pla	-9444
▁pop	-9445
▁pra	-9446
▁pub	-9447
▁pọ́	-9448
▁rub	-9449
▁run	-9450
▁ríi	-9451
▁sil	-9452
▁sit	-9453
▁sta	-9454
▁syn	-9455
▁síí	-9456
▁tou	-9457
▁tàb	-9458
▁von	-9459
▁yen	-9460
▁yìi	-9461
▁yìn	-9462
▁yọ̀	-9463
▁Àdá	-9464
▁Àlá	-9465
▁Àlù	-9466
▁Èka	-9467
▁Ère	-9468
▁Èṣù	-9469
▁Ìdà	-9470
▁Ìdó	-9471
▁Ìlù	-9472
▁Ìmò	-9473
▁Ìsò	-9474
▁Òpó	-9475
▁Òrò	-9476
▁àlè	-9477
▁àní	-9478
▁àpe	-9479
▁àwà	-9480
▁álá	-9481
▁átì	-9482
▁ède	-9483
▁èdá	-9484
▁èké	-9485
▁èni	-9486
▁ìba	-9487
▁ìjo	-9488
▁ìjá	-9489
▁ìkà	-9490
▁ìlu	-9491
▁ìní	-9492
▁ìrè	-9493
▁ìso	-9494
▁ìṣa	-9495
▁ìṣí	-9496
▁ìṣẹ	-9497
▁òru	-9498
▁òró	-9499
▁ńpe	-9500
▁Ẹkọ	-9501
▁Ẹlẹ	-9502
▁ẹbọ	-9503
▁Ọrọ	-9504
▁Ọst	-9505
▁ọlá	-9506
▁ọmú	-9507
▁ọpa	-9508
▁ọrẹ	-9509
▁ọsẹ	-9510
▁ọ́n	-9511
-2010	-9512
NESCO	-9513
Radio	-9514
alori	-9515
araló	-9516
ariwa	-9517
bourg	-9518
bùgbé	-9519
cteri	-9520
daran	-9521
dinku	-9522
diomu	-9523
dison	-9524
dogun	-9525
doyin	-9526
dugbó	-9527
dunni	-9528
dàlẹ̀	-9529
dọ́jọ	-9530
eroes	-9531
fikun	-9532
fóònù	-9533
gbera	-9534
gbere	-9535
gbitẹ	-9536
gboko	-9537
gbùwà	-9538
gúúsù	-9539
hinde	-9540
hovah	-9541
ifowo	-9542
iller	-9543
itage	-9544
jẹ̀mú	-9545
kèrin	-9546
kọ̀lé	-9547
llion	-9548
lopin	-9549
lógun	-9550
lọkan	-9551
ments	-9552
mágbẹ	-9553
mọ̀wé	-9554
mọ́lá	-9555
mọ́ọ̀	-9556
nígbà	-9557
obron	-9558
olomi	-9559
oníṣe	-9560
opian	-9561
pasẹ̀	-9562
puter	-9563
pédíà	-9564
raham	-9565
rance	-9566
rarẹ̀	-9567
rench	-9568
right	-9569
rinus	-9570
ránmú	-9571
róyìn	-9572
rẹ̀ẹ́	-9573
rọsẹ̀	-9574
rọ̀mí	-9575
shasa	-9576
shipu	-9577
shire	-9578
siomu	-9579
stemu	-9580
sáníà	-9581
sègùn	-9582
sìlẹ̀	-9583
tance	-9584
tanná	-9585
táàsì	-9586
ument	-9587
umoni	-9588
wadii	-9589
watch	-9590
yanda	-9591
yanjú	-9592
yinka	-9593
yínká	-9594
yọ̀dé	-9595
Ìkòsì	-9596
ìnlẹ̀	-9597
ìtajà	-9598
úndíá	-9599
ǹpéjú	-9600
ṣọ̀ọ́	-9601
ọ̀rin	-9602
ọ̀run	-9603
▁1500	-9604
▁1760	-9605
▁1815	-9606
▁1819	-9607
▁1840	-9608
▁1843	-9609
▁1852	-9610
▁1880	-9611
▁1901	-9612
▁1902	-9613
▁1907	-9614
▁1910	-9615
▁1912	-9616
▁1918	-9617
▁1920	-9618
▁1921	-9619
▁1926	-9620
▁1936	-9621
▁1937	-9622
▁Aber	-9623
▁Abia	-9624
▁Akọ́	-9625
▁Amọ́	-9626
▁Apáà	-9627
▁Audu	-9628
▁Babá	-9629
▁Bash	-9630
▁Bath	-9631
▁Benj	-9632
▁Bisi	-9633
▁Bots	-9634
▁Dara	-9635
▁Dele	-9636
▁Dire	-9637
▁Duro	-9638
▁Délé	-9639
▁E̟nì	-9640
▁Face	-9641
▁Fine	-9642
▁Free	-9643
▁Gali	-9644
▁Gass	-9645
▁Glas	-9646
▁Grow	-9647
▁Hadi	-9648
▁Holy	-9649
▁Idán	-9650
▁Igan	-9651
▁Ilẹ́	-9652
▁Imma	-9653
▁Isra	-9654
▁Kali	-9655
▁Kalu	-9656
▁Kids	-9657
▁Kiri	-9658
▁Kris	-9659
▁Kátó	-9660
▁Lara	-9661
▁Lisa	-9662
▁Live	-9663
▁Lock	-9664
▁Lori	-9665
▁Luci	-9666
▁Lyon	-9667
▁Láyé	-9668
▁Mara	-9669
▁Marc	-9670
▁Marx	-9671
▁Mexi	-9672
▁Mosa	-9673
▁Nama	-9674
▁Nipa	-9675
▁Níbi	-9676
▁Okan	-9677
▁Olai	-9678
▁Olav	-9679
▁Orun	-9680
▁Otun	-9681
▁Part	-9682
▁Pupa	-9683
▁Read	-9684
▁Road	-9685
▁Rose	-9686
▁Ruth	-9687
▁Sain	-9688
▁Scha	-9689
▁Semi	-9690
▁Shai	-9691
▁Span	-9692
▁Tari	-9693
▁Thai	-9694
▁Tomé	-9695
▁Tour	-9696
▁Wash	-9697
▁Wish	-9698
▁Wọlé	-9699
▁Zeal	-9700
▁Zulu	-9701
▁agun	-9702
▁ayan	-9703
▁báni	-9704
▁bára	-9705
▁bíbó	-9706
▁bínú	-9707
▁dale	-9708
▁doni	-9709
▁dálé	-9710
▁dúro	-9711
▁ewon	-9712
▁e̟ni	-9713
▁fipá	-9714
▁foju	-9715
▁fásì	-9716
▁fìlà	-9717
▁fẹnu	-9718
▁gégé	-9719
▁gìgá	-9720
▁jija	-9721
▁jáwé	-9722
▁kale	-9723
▁kara	-9724
▁kora	-9725
▁kíkó	-9726
▁kòkò	-9727
▁kòró	-9728
▁kódà	-9729
▁kẹji	-9730
▁lore	-9731
▁lápa	-9732
▁láṣẹ	-9733
▁lénu	-9734
▁lóòó	-9735
▁lọjọ	-9736
▁mara	-9737
▁melo	-9738
▁mítà	-9739
▁news	-9740
▁ngba	-9741
▁nilé	-9742
▁nipo	-9743
▁nídi	-9744
▁níní	-9745
▁nípò	-9746
▁níye	-9747
▁poly	-9748
▁pàbó	-9749
▁pàtà	-9750
▁rain	-9751
▁ronú	-9752
▁rọpá	-9753
▁selè	-9754
▁sita	-9755
▁síra	-9756
▁sòrò	-9757
▁tara	-9758
▁tite	-9759
▁tàbi	-9760
▁títà	-9761
▁tútù	-9762
▁wiwa	-9763
▁wole	-9764
▁wura	-9765
▁wíwò	-9766
▁yoku	-9767
▁yíká	-9768
▁yíyà	-9769
▁yọrí	-9770
▁Àlọ́	-9771
▁Ààre	-9772
▁Ìkan	-9773
▁Ìyan	-9774
▁Ìyen	-9775
▁Ìyáà	-9776
▁Ìṣẹ́	-9777
▁àfẹ́	-9778
▁ààlà	-9779
▁èkọ́	-9780
▁ìkún	-9781
▁ìrẹ̀	-9782
▁ìsún	-9783
▁ìwòn	-9784
▁ìyàn	-9785
▁ìyẹ́	-9786
▁òhún	-9787
▁ónjẹ	-9788
▁ṣókí	-9789
▁Ẹran	-9790
▁ẹhin	-9791
▁ẹsin	-9792
▁Ọkọ̀	-9793
▁ọduń	-9794
▁ọlọ̀	-9795
▁ọ̀dọ	-9796
▁ọ̀la	-9797
▁ọ̀pẹ	-9798
▁ọ̀rọ	-9799
Ivoire	-9800
achers	-9801
bójútó	-9802
dsmith	-9803
duduwa	-9804
dárìgì	-9805
dọjẹdọ	-9806
dọ̀fin	-9807
edding	-9808
elemin	-9809
finifi	-9810
gajulo	-9811
gbérin	-9812
gbọnsẹ	-9813
gbọ́wá	-9814
iroyin	-9815
jẹ̀sẹ́	-9816
jọ̀kan	-9817
kunkun	-9818
kánkán	-9819
kíyèsi	-9820
kẹ̀rẹ̀	-9821
lophus	-9822
líọ̀nù	-9823
lẹ́kún	-9824
manuel	-9825
marksi	-9826
mistry	-9827
mphony	-9828
mósómù	-9829
onesia	-9830
pẹ̀lẹ̀	-9831
sanjọ́	-9832
teifio	-9833
ṣayẹwo	-9834
ṣeyọrí	-9835
ṣmania	-9836
ẹ́ẹ̀lì	-9837
ọ́ọ̀nù	-9838
▁(2000	-9839
▁(2003	-9840
▁(2012	-9841
▁1957.	-9842
▁1959.	-9843
▁1965.	-9844
▁1969.	-9845
▁1970)	-9846
▁1970,	-9847
▁1979.	-9848
▁1982.	-9849
▁1986)	-9850
▁1986.	-9851
▁1989.	-9852
▁1992,	-9853
▁2005)	-9854
▁Abdel	-9855
▁Abudu	-9856
▁Abúlé	-9857
▁Achie	-9858
▁Afola	-9859
▁Afọlá	-9860
▁Alaba	-9861
▁Amina	-9862
▁Apara	-9863
▁Ariwa	-9864
▁Awùja	-9865
▁Ayaba	-9866
▁Ayẹyẹ	-9867
▁Aṣojú	-9868
▁Banda	-9869
▁Barth	-9870
▁Conce	-9871
▁Conne	-9872
▁Corps	-9873
▁Dance	-9874
▁Dolly	-9875
▁Ebute	-9876
▁Egypt	-9877
▁Ekiti	-9878
▁Every	-9879
▁Felix	-9880
▁Fiimu	-9881
▁Finan	-9882
▁Flori	-9883
▁Freed	-9884
▁Funmi	-9885
▁Gamba	-9886
▁Henry	-9887
▁Human	-9888
▁Husse	-9889
▁Idije	-9890
▁Insta	-9891
▁Ipele	-9892
▁Irele	-9893
▁Ireti	-9894
▁Jagun	-9895
▁Kinni	-9896
▁Leban	-9897
▁Leone	-9898
▁Liber	-9899
▁Malta	-9900
▁Manch	-9901
▁Marie	-9902
▁Mario	-9903
▁Marsh	-9904
▁Mavin	-9905
▁Merit	-9906
▁Milan	-9907
▁Model	-9908
▁Money	-9909
▁Morón	-9910
▁Mẹ́kà	-9911
▁Mẹ́tà	-9912
▁Nipha	-9913
▁Nílẹ̀	-9914
▁Obani	-9915
▁Olani	-9916
▁Olóde	-9917
▁Onírú	-9918
▁Oogun	-9919
▁Oorun	-9920
▁Oscar	-9921
▁Oòrùn	-9922
▁Razia	-9923
▁Shuga	-9924
▁Stone	-9925
▁Syste	-9926
▁Taiwo	-9927
▁Tosyn	-9928
▁Tunde	-9929
▁Under	-9930
▁Villa	-9931
▁Volta	-9932
▁Wolof	-9933
▁Woman	-9934
▁Zaruq	-9935
▁abule	-9936
▁adárí	-9937
▁adíje	-9938
▁aiṣan	-9939
▁ajeji	-9940
▁ajìjà	-9941
▁akojo	-9942
▁akópa	-9943
▁alaba	-9944
▁alajo	-9945
▁alaro	-9946
▁alábá	-9947
▁alájọ	-9948
▁amino	-9949
▁amúni	-9950
▁apejọ	-9951
▁aropo	-9952
▁aroye	-9953
▁awako	-9954
▁black	-9955
▁bèèrè	-9956
▁béèrè	-9957
▁eruku	-9958
▁feder	-9959
▁fọọmu	-9960
▁gbale	-9961
▁gbera	-9962
▁gberu	-9963
▁gbodo	-9964
▁gboro	-9965
▁gbára	-9966
▁gbédè	-9967
▁geere	-9968
▁gígùn	-9969
▁ibojì	-9970
▁idari	-9971
▁ijala	-9972
▁ikowe	-9973
▁ileto	-9974
▁inagi	-9975
▁ipani	-9976
▁irawọ	-9977
▁irufẹ	-9978
▁isiro	-9979
▁isoju	-9980
▁isoro	-9981
▁itobi	-9982
▁iwaju	-9983
▁iyàrá	-9984
▁kerìn	-9985
▁kesan	-9986
▁kíkọ́	-9987
▁kẹsán	-9988
▁lóhùn	-9989
▁lóyún	-9990
▁lẹgbẹ	-9991
▁mùjẹ̀	-9992
▁mẹ́nu	-9993
▁ojúbọ	-9994
▁okowò	-9995
▁olukọ	-9996
▁olóró	-9997
▁oníjó	-9998
▁orisa	-9999
▁otitọ	-10000
▁paapa	-10001
▁rọ́pò	-10002
▁sunmo	-10003
▁sunmọ	-10004
▁sáàbà	-10005
▁sáábà	-10006
▁titan	-10007
▁years	-10008
▁yẹ̀wò	-10009
▁Àbújá	-10010
▁Àgùdà	-10011
▁Àrokò	-10012
▁Àsìkò	-10013
▁Àtòjọ	-10014
▁Ìdílé	-10015
▁Ìlera	-10016
▁Ìtùmò	-10017
▁àdáni	-10018
▁àdáyé	-10019
▁àisàn	-10020
▁àkójọ	-10021
▁àmúlò	-10022
▁àpáta	-10023
▁àpótí	-10024
▁àpẹrẹ	-10025
▁àpọ́n	-10026
▁àtinú	-10027
▁àtòjọ	-10028
▁àyíká	-10029
▁ààrín	-10030
▁àṣírí	-10031
▁ìnira	-10032
▁ìpara	-10033
▁ìpìlè	-10034
▁ìrìnà	-10035
▁ìrókò	-10036
▁ìséni	-10037
▁ìtura	-10038
▁ìyanu	-10039
▁ìṣesí	-10040
▁ìṣètò	-10041
▁òtútù	-10042
▁ṣẹgun	-10043
▁ṣẹ́yọ	-10044
▁ẹlẹmi	-10045
▁ẹniti	-10046
▁ẹnití	-10047
▁ẹ̀wẹ̀	-10048
/5/2007	-10049
Hungary	-10050
January	-10051
allenge	-10052
anístàn	-10053
arcourt	-10054
dilogun	-10055
eritage	-10056
ference	-10057
fẹ̀hónú	-10058
gbóògùn	-10059
gídígbò	-10060
kèrindò	-10061
lagbara	-10062
maworan	-10063
nesburg	-10064
onifoji	-10065
reative	-10066
ríkúlọ́	-10067
therine	-10068
́lọ́wọ́	-10069
ẹ́ẹ̀kọ́	-10070
▁Action	-10071
▁Agbọ́n	-10072
▁Akinye	-10073
▁Albert	-10074
▁Alfred	-10075
▁Animal	-10076
▁Barack	-10077
▁Baraka	-10078
▁Bauchi	-10079
▁Bámijì	-10080
▁Canada	-10081
▁Classi	-10082
▁Corona	-10083
▁Domiti	-10084
▁Donkey	-10085
▁Durban	-10086
▁Ekwere	-10087
▁Family	-10088
▁Gbagyi	-10089
▁Idibia	-10090
▁Julius	-10091
▁Kẹẹ̀wá	-10092
▁Mẹ́rìn	-10093
▁Nelson	-10094
▁Number	-10095
▁Office	-10096
▁Onyeka	-10097
▁Orísìí	-10098
▁Person	-10099
▁Philli	-10100
▁Poetry	-10101
▁Quincy	-10102
▁Sheikh	-10103
▁Sierra	-10104
▁Single	-10105
▁Waziri	-10106
▁alaini	-10107
▁aláìní	-10108
▁anigun	-10109
▁aránṣọ	-10110
▁atokun	-10111
▁atẹ̀wé	-10112
▁búburú	-10113
▁fásitì	-10114
▁gbígbà	-10115
▁ibatan	-10116
▁ijosin	-10117
▁ijọsin	-10118
▁isinku	-10119
▁kéréje	-10120
▁lasiko	-10121
▁lóríṣi	-10122
▁megawa	-10123
▁márùún	-10124
▁mọ́kan	-10125
▁oluilu	-10126
▁olùgbà	-10127
▁oriopo	-10128
▁orísun	-10129
▁otooto	-10130
▁papòdà	-10131
▁pélébé	-10132
▁region	-10133
▁roboto	-10134
▁rádíiò	-10135
▁singer	-10136
▁sinima	-10137
▁siseku	-10138
▁tabili	-10139
▁tàbúrò	-10140
▁títìpa	-10141
▁tòótọ́	-10142
▁yinyin	-10143
▁Àjàgbé	-10144
▁Àpẹẹrẹ	-10145
▁Àtìláń	-10146
▁Ìràwọ̀	-10147
▁Ìwádìí	-10148
▁àgbàdo	-10149
▁ìdínkù	-10150
▁ìgbélé	-10151
▁ìmọ̀sí	-10152
▁ìtẹ̀wé	-10153
▁òpìtàn	-10154
▁ṣàmúlò	-10155
▁ọgọ́ta	-10156
▁ọ̀wọ́n	-10157
Amẹ́ríkà	-10158
anguages	-10159
gbungbun	-10160
lélógójì	-10161
írọ́ọ̀sì	-10162
▁Abraham	-10163
▁Akinọlá	-10164
▁Alákóso	-10165
▁Améríkà	-10166
▁Christo	-10167
▁Colonel	-10168
▁Country	-10169
▁Diploma	-10170
▁Gassama	-10171
▁Gbágùrá	-10172
▁Grammar	-10173
▁Jehovah	-10174
▁Káyọ̀dé	-10175
▁Martins	-10176
▁Masters	-10177
▁Okereke	-10178
▁Okùnrin	-10179
▁Senegal	-10180
▁Spanish	-10181
▁Sùgbọ́n	-10182
▁Theater	-10183
▁Trinity	-10184
▁Zealand	-10185
▁aláàrẹ̀	-10186
▁diploma	-10187
▁efinifi	-10188
▁eṣinṣin	-10189
▁faramọ́	-10190
▁gbajumọ	-10191
▁gbongan	-10192
▁gbẹ̀yìn	-10193
▁igbogun	-10194
▁igbọnsẹ	-10195
▁ikorira	-10196
▁ipilese	-10197
▁irelura	-10198
▁itọsọna	-10199
▁láàárin	-10200
▁lọ́mọdé	-10201
▁milionu	-10202
▁méjéèjì	-10203
▁mọ̀ọ́ká	-10204
▁níyànjú	-10205
▁onisowo	-10206
▁onímàle	-10207
▁rubella	-10208
▁simenti	-10209
▁sistemu	-10210
▁sulfuru	-10211
▁Ìyanṣẹ́	-10212
▁àjànàkú	-10213
▁ànfààní	-10214
▁àyípadà	-10215
▁ìhùwàsí	-10216
▁ìjàm̀bá	-10217
▁ìmọ́lẹ̀	-10218
▁ìrànwọ́	-10219
▁ìyípadà	-10220
▁òpòlopò	-10221
▁ṣalanga	-10222
▁ṣokùnfà	-10223
▁ẹlẹgbẹ́	-10224
▁Ọ̀gbọ́n	-10225
▁Ọ̀mọ̀wé	-10226
▁ọlọ́run	-10227
▁ọ̀daràn	-10228
▁ọ̀gágun	-10229
▁ọ̀kọrin	-10230
erigberin	-10231
gbẹ́kẹ̀lé	-10232
ifowopamo	-10233
kolashipu	-10234
stronomer	-10235
ẹnisọ̀rọ̀	-10236
▁Adegbitẹ	-10237
▁Alákòóso	-10238
▁Apáàríwá	-10239
▁Arárọ̀mí	-10240
▁Awùjalẹ̀	-10241
▁Aáfíríkà	-10242
▁Botswana	-10243
▁Catholic	-10244
▁Durotoye	-10245
▁Gbólóhùn	-10246
▁Hospital	-10247
▁Igbákejì	-10248
▁Jonathan	-10249
▁Kinshasa	-10250
▁Language	-10251
▁Movement	-10252
▁Musulumi	-10253
▁Nàíjíríà	-10254
▁Republic	-10255
▁Statisti	-10256
▁Teletele	-10257
▁Tànsáníà	-10258
▁alagbara	-10259
▁alatunse	-10260
▁alákòóso	-10261
▁apaguusu	-10262
▁aṣàpẹẹrẹ	-10263
▁ibùjókòó	-10264
▁ihinrere	-10265
▁iranlose	-10266
▁jẹdọjẹdọ	-10267
▁mínísítà	-10268
▁nítorípé	-10269
▁obaluaye	-10270
▁olùkọ̀wé	-10271
▁onitanna	-10272
▁oníróyìn	-10273
▁plánẹ́tì	-10274
▁sedasile	-10275
▁teletele	-10276
▁Àgbábuta	-10277
▁Àkọsílẹ̀	-10278
▁àìfojúrí	-10279
▁ìkànìyàn	-10280
▁ẹlẹ́gbẹ́	-10281
▁ẹlẹ́ẹ̀kẹ	-10282
▁Ọbáfẹ́mi	-10283
▁ọmọbirin	-10284
láàádọ́rin	-10285
▁Catherine	-10286
▁Economics	-10287
▁Education	-10288
▁Executive	-10289
▁Hepatitis	-10290
▁Indonesia	-10291
▁Instagram	-10292
▁Olúṣẹ́gun	-10293
▁Wikipédíà	-10294
▁arabinrin	-10295
▁arakunrin	-10296
▁bakitéríà	-10297
▁gbogbogbo	-10298
▁hepatitis	-10299
▁idaniloju	-10300
▁igbesiaye	-10301
▁krómósómù	-10302
▁mathemati	-10303
▁méjìléláà	-10304
▁teliskopu	-10305
▁ìgbéròyìn	-10306
▁Ọbásanjọ́	-10307
Kordofanian	-10308
dínláàdọ́ta	-10309
dínlọ́gbọ́n	-10310
▁Amarteifio	-10311
▁Conference	-10312
▁Federation	-10313
▁Washington	-10314
▁alátẹnumọ́	-10315
▁itelentele	-10316
▁totobijulo	-10317
▁yunifasiti	-10318
▁Àgbádárìgì	-10319
▁àkọ́bẹ̀rẹ̀	-10320
▁ìsénimọ́lé	-10321
▁ìtẹ̀síwájú	-10322
▁ẹlẹ́ẹ̀kejì	-10323
▁ọ̀gọ̀ọ̀rọ̀	-10324
▁Achievement	-10325
▁Afghanístàn	-10326
▁Agbọ́nmágbẹ	-10327
▁Agriculture	-10328
▁Microlophus	-10329
▁aláìlágbára	-10330
▁efinifirini	-10331
▁engineering	-10332
▁ifowosowopo	-10333
▁telefisionu	-10334
▁aláwọ̀funfun	-10335
▁méjìdínlógún	-10336
▁olùgbéréjáde	-10337
▁ọlọ́sọ̀ọ̀sẹ̀	-10338
▁amohunmaworan	-10339
▁ìdánilẹ́kọ̀ọ́	-10340
▁mẹ́rìnlélọ́gọ́	-10341
30	-10342
40	-10343
Ar	-10344
BO	-10345
Di	-10346
FM	-10347
Ha	-10348
Ja	-10349
ND	-10350
PC	-10351
Pa	-10352
Ph	-10353
SA	-10354
St	-10355
Te	-10356
Th	-10357
UK	-10358
bn	-10359
ix	-10360
m̀	-10361
ux	-10362
ÈR	-10363
ád	-10364
ńù	-10365
ṣú	-10366
–6	-10367
-36	-10368
04%	-10369
95)	-10370
Ada	-10371
Bor	-10372
Bra	-10373
Chi	-10374
GUN	-10375
Gbo	-10376
IFA	-10377
IME	-10378
Ifè	-10379
Kwa	-10380
LAM	-10381
NTV	-10382
Net	-10383
abẹ	-10384
ane	-10385
ase	-10386
asu	-10387
bbi	-10388
bot	-10389
bìó	-10390
cau	-10391
chy	-10392
dwi	-10393
ebe	-10394
ery	-10395
erí	-10396
ewe	-10397
ewi	-10398
fen	-10399
fou	-10400
gat	-10401
gbí	-10402
gde	-10403
gea	-10404
hip	-10405
hir	-10406
how	-10407
hub	-10408
hyd	-10409
iss	-10410
jja	-10411
jíá	-10412
kah	-10413
kam	-10414
kas	-10415
kno	-10416
ksì	-10417
kíá	-10418
leh	-10419
lei	-10420
lit	-10421
láí	-10422
mbi	-10423
mo̟	-10424
m̀p	-10425
nam	-10426
net	-10427
nor	-10428
nàá	-10429
okù	-10430
olá	-10431
olù	-10432
opó	-10433
ove	-10434
ple	-10435
pro	-10436
pón	-10437
rey	-10438
ror	-10439
sir	-10440
tie	-10441
ulu	-10442
ved	-10443
vir	-10444
wak	-10445
xia	-10446
ylv	-10447
zat	-10448
zie	-10449
àyè	-10450
ánh	-10451
èkó	-10452
èlá	-10453
èmi	-10454
èyí	-10455
ìlì	-10456
ìpé	-10457
ídé	-10458
írà	-10459
òní	-10460
òpù	-10461
ólé	-10462
ùńì	-10463
ńje	-10464
ńta	-10465
ṣèè	-10466
ṣìn	-10467
ẹti	-10468
ọ́r	-10469
▁5:	-10470
▁AR	-10471
▁Ao	-10472
▁BB	-10473
▁Bè	-10474
▁Bé	-10475
▁EL	-10476
▁Ez	-10477
▁FC	-10478
▁Gù	-10479
▁IV	-10480
▁Jr	-10481
▁Jà	-10482
▁Mọ	-10483
▁Nd	-10484
▁Oh	-10485
▁Ow	-10486
▁RI	-10487
▁Sè	-10488
▁Tè	-10489
▁Us	-10490
▁Wo	-10491
▁Yò	-10492
▁aw	-10493
▁ay	-10494
▁aì	-10495
▁em	-10496
▁ey	-10497
▁hu	-10498
▁jè	-10499
▁nf	-10500
▁o̟	-10501
▁sh	-10502
▁Àm	-10503
▁Ìb	-10504
▁Ìh	-10505
▁Íń	-10506
▁éè	-10507
▁ńn	-10508
▁ọj	-10509
Awon	-10510
Awọn	-10511
Best	-10512
Ohun	-10513
Sade	-10514
Togo	-10515
Tube	-10516
airo	-10517
akes	-10518
alls	-10519
alẹ́	-10520
anis	-10521
arib	-10522
arls	-10523
asab	-10524
ates	-10525
atis	-10526
auty	-10527
basi	-10528
biyi	-10529
bẹli	-10530
cher	-10531
chni	-10532
cole	-10533
dale	-10534
dial	-10535
dipo	-10536
dist	-10537
duna	-10538
dwig	-10539
dìjà	-10540
dúrà	-10541
ersk	-10542
falu	-10543
fess	-10544
fidi	-10545
fóró	-10546
gacy	-10547
gbok	-10548
gege	-10549
ghen	-10550
ghts	-10551
gibe	-10552
gidì	-10553
gium	-10554
glas	-10555
gàdá	-10556
gólà	-10557
heel	-10558
helm	-10559
hode	-10560
ingi	-10561
inja	-10562
jalè	-10563
jèsà	-10564
jẹ̀r	-10565
keem	-10566
keja	-10567
kele	-10568
keta	-10569
kiru	-10570
koff	-10571
kore	-10572
kìri	-10573
kíni	-10574
kùsà	-10575
kọta	-10576
lanà	-10577
lard	-10578
lati	-10579
latu	-10580
lelẹ	-10581
lena	-10582
lewu	-10583
ller	-10584
lorì	-10585
luck	-10586
luen	-10587
ládé	-10588
lágà	-10589
lásí	-10590
léra	-10591
lẹnu	-10592
lọlẹ	-10593
maba	-10594
medi	-10595
mejì	-10596
moyà	-10597
mula	-10598
musi	-10599
májì	-10600
mọlá	-10601
neka	-10602
nísà	-10603
núsì	-10604
ofin	-10605
olin	-10606
omey	-10607
orea	-10608
orns	-10609
pamó	-10610
pato	-10611
peni	-10612
peti	-10613
phan	-10614
phic	-10615
ples	-10616
pson	-10617
pọ̀n	-10618
rage	-10619
ream	-10620
reau	-10621
riam	-10622
rian	-10623
ried	-10624
rism	-10625
rora	-10626
roro	-10627
ruce	-10628
ruth	-10629
rìwò	-10630
seye	-10631
sipo	-10632
song	-10633
sáré	-10634
sílẹ	-10635
tano	-10636
tham	-10637
tial	-10638
tice	-10639
tipá	-10640
toid	-10641
tomy	-10642
tule	-10643
tzer	-10644
tàbí	-10645
tìnì	-10646
tóbi	-10647
tóka	-10648
tọtọ	-10649
umar	-10650
usaf	-10651
vere	-10652
wada	-10653
waii	-10654
warí	-10655
ways	-10656
wiso	-10657
wiyo	-10658
wìrì	-10659
wùjo	-10660
wùmí	-10661
wọki	-10662
yawó	-10663
yeku	-10664
yers	-10665
yánà	-10666
yẹwò	-10667
yọri	-10668
ìgbé	-10669
íláí	-10670
òódó	-10671
ǹtar	-10672
ọ̀la	-10673
ọ̀mù	-10674
ọ̀nú	-10675
ọ̀ún	-10676
ọ́jú	-10677
ọ́mù	-10678
▁10.	-10679
▁121	-10680
▁13,	-10681
▁14,	-10682
▁141	-10683
▁15,	-10684
▁16,	-10685
▁161	-10686
▁20%	-10687
▁20,	-10688
▁20.	-10689
▁339	-10690
▁480	-10691
▁486	-10692
▁493	-10693
▁500	-10694
▁643	-10695
▁650	-10696
▁700	-10697
▁800	-10698
▁989	-10699
▁APC	-10700
▁Abà	-10701
▁Akẹ	-10702
▁Anj	-10703
▁Ann	-10704
▁Anu	-10705
▁App	-10706
▁Ato	-10707
▁Baa	-10708
▁Bai	-10709
▁Brí	-10710
▁Bẹ̀	-10711
▁Cau	-10712
▁Chu	-10713
▁Cyn	-10714
▁Def	-10715
▁Dia	-10716
▁Dọ́	-10717
▁Eji	-10718
▁Ejo	-10719
▁Eku	-10720
▁Eld	-10721
▁Eme	-10722
▁End	-10723
▁Equ	-10724
▁Era	-10725
▁Exp	-10726
▁Gar	-10727
▁Gbe	-10728
▁Gio	-10729
▁Gos	-10730
▁Gur	-10731
▁Gáà	-10732
▁Had	-10733
▁Hey	-10734
▁Hum	-10735
▁III	-10736
▁ISO	-10737
▁Ibè	-10738
▁Ido	-10739
▁Ija	-10740
▁Ikú	-10741
▁Ish	-10742
▁Isé	-10743
▁Itá	-10744
▁Joe	-10745
▁Joy	-10746
▁Jun	-10747
▁Kay	-10748
▁Kha	-10749
▁Kim	-10750
▁Kro	-10751
▁Kru	-10752
▁Krí	-10753
▁Kwe	-10754
▁Kìí	-10755
▁Kón	-10756
▁LaB	-10757
▁Lep	-10758
▁Mbu	-10759
▁Mik	-10760
▁Mou	-10761
▁Mrs	-10762
▁NAS	-10763
▁NTV	-10764
▁Nas	-10765
▁Ndi	-10766
▁Nka	-10767
▁Nke	-10768
▁Orò	-10769
▁Osa	-10770
▁Oyo	-10771
▁PhD	-10772
▁Ply	-10773
▁Pur	-10774
▁Pàá	-10775
▁Pẹ́	-10776
▁RNA	-10777
▁Raj	-10778
▁Ret	-10779
▁Rod	-10780
▁Rón	-10781
▁Rọ̀	-10782
▁SID	-10783
▁See	-10784
▁Set	-10785
▁Sey	-10786
▁Sol	-10787
▁Son	-10788
▁Syl	-10789
▁Tat	-10790
▁Tus	-10791
▁Uwa	-10792
▁Wea	-10793
▁Wen	-10794
▁ali	-10795
▁ana	-10796
▁apẹ	-10797
▁bar	-10798
▁baà	-10799
▁cra	-10800
▁dam	-10801
▁den	-10802
▁des	-10803
▁erù	-10804
▁fan	-10805
▁fùń	-10806
▁gbì	-10807
▁gra	-10808
▁him	-10809
▁hip	-10810
▁hyd	-10811
▁hún	-10812
▁ibì	-10813
▁ifo	-10814
▁ijà	-10815
▁iró	-10816
▁jé̟	-10817
▁jọ̀	-10818
▁ked	-10819
▁kóò	-10820
▁man	-10821
▁men	-10822
▁nfi	-10823
▁nmu	-10824
▁nni	-10825
▁non	-10826
▁nri	-10827
▁nta	-10828
▁ofe	-10829
▁oku	-10830
▁okò	-10831
▁ola	-10832
▁oma	-10833
▁opa	-10834
▁orò	-10835
▁otí	-10836
▁oxi	-10837
▁poo	-10838
▁rè̟	-10839
▁rín	-10840
▁ser	-10841
▁seé	-10842
▁she	-10843
▁son	-10844
▁spe	-10845
▁s̟e	-10846
▁thi	-10847
▁tíí	-10848
▁Àrì	-10849
▁Àwa	-10850
▁Èso	-10851
▁Ìdì	-10852
▁Ìkà	-10853
▁Ìwú	-10854
▁Ìṣe	-10855
▁Ìṣè	-10856
▁Òkò	-10857
▁Òso	-10858
▁Óun	-10859
▁àdù	-10860
▁àsá	-10861
▁àsè	-10862
▁àṣá	-10863
▁áká	-10864
▁ète	-10865
▁étò	-10866
▁ìbọ	-10867
▁ìdé	-10868
▁ìfà	-10869
▁ìfé	-10870
▁ìgò	-10871
▁ìjì	-10872
▁ìjí	-10873
▁ìkẹ	-10874
▁ìsa	-10875
▁ìtú	-10876
▁ìwè	-10877
▁òdì	-10878
▁òjì	-10879
▁ńpa	-10880
▁ńpè	-10881
▁ńṣe	-10882
▁Ẹbí	-10883
▁ẹri	-10884
▁Ọdọ	-10885
▁Ọnà	-10886
▁ọjó	-10887
▁ọkò	-10888
Ameri	-10889
Bantu	-10890
Chief	-10891
South	-10892
alism	-10893
antha	-10894
anuel	-10895
arela	-10896
asino	-10897
ayewo	-10898
burgh	-10899
bákin	-10900
bòkun	-10901
cavir	-10902
celyn	-10903
chino	-10904
cient	-10905
cific	-10906
dance	-10907
durus	-10908
dàáyà	-10909
dípọ̀	-10910
dọ̀tí	-10911
emeji	-10912
enant	-10913
epcke	-10914
fanos	-10915
finró	-10916
fonso	-10917
físàn	-10918
gbayé	-10919
gbàdì	-10920
gbàmí	-10921
gbèje	-10922
gájíá	-10923
hamed	-10924
inubu	-10925
isual	-10926
jagan	-10927
jírìa	-10928
júmọ́	-10929
kanjú	-10930
kelau	-10931
kunfa	-10932
kùrin	-10933
kúnnù	-10934
lafia	-10935
laika	-10936
lanca	-10937
lando	-10938
lasma	-10939
lberg	-10940
light	-10941
lohun	-10942
lotte	-10943
lúdùn	-10944
lúàbí	-10945
lọ̀ọ́	-10946
mbola	-10947
musin	-10948
máànù	-10949
méníà	-10950
mẹ̀wà	-10951
mọ̀sà	-10952
nurọ̀	-10953
orawo	-10954
oroko	-10955
orrow	-10956
pagos	-10957
paper	-10958
pital	-10959
power	-10960
pẹ́yẹ	-10961
ranti	-10962
ranṣẹ	-10963
resch	-10964
rúgbó	-10965
rẹ̀fà	-10966
sease	-10967
ships	-10968
siden	-10969
siime	-10970
sippi	-10971
stone	-10972
síksì	-10973
tamin	-10974
teres	-10975
trans	-10976
tunji	-10977
tọ̀nà	-10978
unior	-10979
vanus	-10980
verly	-10981
world	-10982
wẹ̀lì	-10983
yanrí	-10984
yelsa	-10985
ṣetán	-10986
Ẹ̀gbá	-10987
▁100,	-10988
▁1804	-10989
▁1809	-10990
▁1835	-10991
▁1838	-10992
▁1851	-10993
▁1873	-10994
▁1874	-10995
▁1876	-10996
▁1881	-10997
▁1882	-10998
▁1884	-10999
▁1888	-11000
▁1890	-11001
▁1899	-11002
▁1905	-11003
▁1916	-11004
▁1922	-11005
▁1927	-11006
▁1930	-11007
▁1941	-11008
▁2022	-11009
▁2100	-11010
▁3166	-11011
▁4217	-11012
▁5000	-11013
▁6000	-11014
▁AFRI	-11015
▁APIS	-11016
▁Aafi	-11017
▁Aami	-11018
▁Abdi	-11019
▁Agwu	-11020
▁Akẹ́	-11021
▁Arun	-11022
▁Atọ̀	-11023
▁Baji	-11024
▁Bill	-11025
▁Birm	-11026
▁Blan	-11027
▁Bogo	-11028
▁Bovi	-11029
▁Buck	-11030
▁Bush	-11031
▁Bùrà	-11032
▁Code	-11033
▁Didi	-11034
▁Dram	-11035
▁Dunn	-11036
▁Edin	-11037
▁Eric	-11038
▁Esti	-11039
▁FIFA	-11040
▁Game	-11041
▁Gbon	-11042
▁Gbẹ̀	-11043
▁Geza	-11044
▁Guar	-11045
▁Hall	-11046
▁Hard	-11047
▁Hill	-11048
▁Hoff	-11049
▁Ifun	-11050
▁Igbẹ	-11051
▁Indi	-11052
▁Isin	-11053
▁Jane	-11054
▁Jara	-11055
▁Kaba	-11056
▁Kara	-11057
▁Kash	-11058
▁Kewa	-11059
▁Kini	-11060
▁Kìrì	-11061
▁Kúbà	-11062
▁Kẹwa	-11063
▁Last	-11064
▁Late	-11065
▁Luiz	-11066
▁Maje	-11067
▁Mase	-11068
▁Matt	-11069
▁Maya	-11070
▁Nguy	-11071
▁Nike	-11072
▁Ogbo	-11073
▁Ohio	-11074
▁Otto	-11075
▁Peix	-11076
▁Pelu	-11077
▁Pere	-11078
▁Pers	-11079
▁Pict	-11080
▁Post	-11081
▁Prea	-11082
▁Real	-11083
▁Reel	-11084
▁Rese	-11085
▁Rush	-11086
▁SADR	-11087
▁Sade	-11088
▁Samo	-11089
▁Sarr	-11090
▁Secu	-11091
▁Soft	-11092
▁Sony	-11093
▁Spot	-11094
▁Ster	-11095
▁Sàlá	-11096
▁Sòmá	-11097
▁TIME	-11098
▁Talk	-11099
▁Teli	-11100
▁Tobe	-11101
▁Torí	-11102
▁Tris	-11103
▁Tógò	-11104
▁Uche	-11105
▁Wema	-11106
▁Will	-11107
▁Yàtò	-11108
▁Yúró	-11109
▁Zara	-11110
▁Zone	-11111
▁aala	-11112
▁abbl	-11113
▁airi	-11114
▁aiye	-11115
▁arts	-11116
▁arìn	-11117
▁asan	-11118
▁atan	-11119
▁bata	-11120
▁bójú	-11121
▁daba	-11122
▁dije	-11123
▁dipe	-11124
▁divi	-11125
▁diẹ̀	-11126
▁dání	-11127
▁débi	-11128
▁dípò	-11129
▁dóko	-11130
▁eyun	-11131
▁fila	-11132
▁forí	-11133
▁fàyè	-11134
▁fèrè	-11135
▁fọto	-11136
▁gene	-11137
▁goke	-11138
▁gédé	-11139
▁gógó	-11140
▁gúsù	-11141
▁high	-11142
▁ifẹ̀	-11143
▁ioni	-11144
▁irín	-11145
▁irọ̀	-11146
▁itọ́	-11147
▁jasi	-11148
▁jazz	-11149
▁jeyo	-11150
▁joba	-11151
▁juwe	-11152
▁jìjà	-11153
▁júwe	-11154
▁kalẹ	-11155
▁kilo	-11156
▁koju	-11157
▁kolu	-11158
▁koro	-11159
▁kris	-11160
▁kéje	-11161
▁kéjì	-11162
▁kòrí	-11163
▁kóró	-11164
▁kọ́ọ	-11165
▁leni	-11166
▁lero	-11167
▁lode	-11168
▁lojo	-11169
▁loke	-11170
▁lona	-11171
▁lule	-11172
▁lápá	-11173
▁láán	-11174
▁létí	-11175
▁lóṣù	-11176
▁lẹni	-11177
▁lẹta	-11178
▁mewa	-11179
▁mita	-11180
▁morn	-11181
▁mójú	-11182
▁múra	-11183
▁nipe	-11184
▁niye	-11185
▁níbí	-11186
▁nẹti	-11187
▁offi	-11188
▁ogba	-11189
▁owon	-11190
▁pako	-11191
▁poju	-11192
▁posi	-11193
▁pálí	-11194
▁pẹlú	-11195
▁ques	-11196
▁riba	-11197
▁ròdò	-11198
▁seda	-11199
▁show	-11200
▁sibe	-11201
▁sipo	-11202
▁sáré	-11203
▁sínu	-11204
▁sísá	-11205
▁tilẹ	-11206
▁tipá	-11207
▁tita	-11208
▁titẹ	-11209
▁tiwa	-11210
▁yipo	-11211
▁yíya	-11212
▁yíyẹ	-11213
▁yùńì	-11214
▁Àgbé	-11215
▁Àìná	-11216
▁ÌJẸ̀	-11217
▁Ìfẹ́	-11218
▁Ìrùn	-11219
▁Írẹ́	-11220
▁Ògbò	-11221
▁Òndó	-11222
▁Òǹdó	-11223
▁àràn	-11224
▁ààyò	-11225
▁èyàn	-11226
▁èyìn	-11227
▁èébì	-11228
▁èémí	-11229
▁ògún	-11230
▁òkùn	-11231
▁òǹkà	-11232
▁Ṣiṣẹ	-11233
▁ṣaju	-11234
▁ṣubu	-11235
▁ṣọdẹ	-11236
▁Ẹkùn	-11237
▁Ẹ́mí	-11238
▁ẹkún	-11239
▁ẹ̀dà	-11240
▁ẹ̀kẹ	-11241
▁ẹ̀kọ	-11242
▁Ọwọ́	-11243
▁Ọ̀rà	-11244
▁ọgbà	-11245
▁ọ̀ún	-11246
Aláayè	-11247
Claude	-11248
Gbogbo	-11249
Michel	-11250
alysis	-11251
araeni	-11252
bojuto	-11253
bọ̀sẹ̀	-11254
cience	-11255
dental	-11256
dimule	-11257
diwọ̀n	-11258
dúláwò	-11259
dẹ́kun	-11260
ential	-11261
fessor	-11262
gatsia	-11263
igbimo	-11264
illing	-11265
istory	-11266
kankan	-11267
ktrónì	-11268
kọtaya	-11269
làwọ́n	-11270
lẹnuwo	-11271
lọ́rọ̀	-11272
mojuto	-11273
m̀báyé	-11274
m̀pútà	-11275
mẹ́ntì	-11276
mọ̀ṣọ́	-11277
nywood	-11278
ografi	-11279
prehen	-11280
rísítì	-11281
stẹ́nì	-11282
talina	-11283
torina	-11284
unisin	-11285
wariri	-11286
wọ́gbà	-11287
ànújẹ́	-11288
ìsọ̀rí	-11289
ìwádìí	-11290
ṣèègùn	-11291
ṣọ̀run	-11292
ẹ́ẹ̀sì	-11293
▁(2008	-11294
▁1961.	-11295
▁1965,	-11296
▁1971,	-11297
▁1975,	-11298
▁1981,	-11299
▁1982)	-11300
▁1983.	-11301
▁1985.	-11302
▁1986,	-11303
▁1987,	-11304
▁1989)	-11305
▁2000.	-11306
▁2001.	-11307
▁2002.	-11308
▁2021,	-11309
▁Abele	-11310
▁Adedi	-11311
▁Adele	-11312
▁Adéní	-11313
▁Adéró	-11314
▁After	-11315
▁Akite	-11316
▁Akoko	-11317
▁Alaye	-11318
▁Altai	-11319
▁Alárè	-11320
▁Archi	-11321
▁Aríṣe	-11322
▁Awujọ	-11323
▁Betty	-11324
▁Boafo	-11325
▁Booth	-11326
▁Borno	-11327
▁Bruce	-11328
▁Báyọ̀	-11329
▁Bíńtà	-11330
▁Carib	-11331
▁Casab	-11332
▁Civil	-11333
▁Coker	-11334
▁Costa	-11335
▁Cunha	-11336
▁Death	-11337
▁Eleyi	-11338
▁Excel	-11339
▁Fashi	-11340
▁Front	-11341
▁Funke	-11342
▁Great	-11343
▁ISLAM	-11344
▁Ijebu	-11345
▁Ilana	-11346
▁Isele	-11347
▁Itali	-11348
▁Jules	-11349
▁Khali	-11350
▁Korea	-11351
▁Kẹsan	-11352
▁Lábẹ́	-11353
▁Léyìn	-11354
▁Macau	-11355
▁Malay	-11356
▁Metho	-11357
▁Metta	-11358
▁Mofẹ́	-11359
▁Multi	-11360
▁Naira	-11361
▁Nepal	-11362
▁Night	-11363
▁Nkiru	-11364
▁Nneka	-11365
▁Nìgbà	-11366
▁Nígba	-11367
▁Obada	-11368
▁Olorì	-11369
▁Oloye	-11370
▁Olówó	-11371
▁Oniru	-11372
▁Orilẹ	-11373
▁Orúko	-11374
▁Paper	-11375
▁Pemba	-11376
▁Pepsi	-11377
▁Point	-11378
▁Ponti	-11379
▁Priva	-11380
▁Prize	-11381
▁Rhode	-11382
▁Rẹ̀mí	-11383
▁Saleh	-11384
▁Santa	-11385
▁Semin	-11386
▁Shina	-11387
▁Smith	-11388
▁Spein	-11389
▁Spice	-11390
▁Sálíù	-11391
▁Trust	-11392
▁Wales	-11393
▁Yábàá	-11394
▁Yọ̀mí	-11395
▁abàmì	-11396
▁abęrę	-11397
▁abẹnu	-11398
▁abẹrẹ	-11399
▁afárá	-11400
▁agaga	-11401
▁akeko	-11402
▁akojọ	-11403
▁akoso	-11404
▁alaje	-11405
▁alara	-11406
▁alawọ	-11407
▁alopo	-11408
▁alára	-11409
▁aláyé	-11410
▁apase	-11411
▁apẹrẹ	-11412
▁arópò	-11413
▁atako	-11414
▁atokọ	-11415
▁awuye	-11416
▁ayafi	-11417
▁aṣara	-11418
▁aṣoju	-11419
▁bayii	-11420
▁beere	-11421
▁bàjẹ́	-11422
▁búrẹ́	-11423
▁dáhùn	-11424
▁dídún	-11425
▁elekt	-11426
▁elere	-11427
▁emeji	-11428
▁feran	-11429
▁fifun	-11430
▁figba	-11431
▁films	-11432
▁first	-11433
▁funra	-11434
▁fílmù	-11435
▁fínní	-11436
▁fíímù	-11437
▁gbayì	-11438
▁gbese	-11439
▁gbomi	-11440
▁gbóná	-11441
▁híhun	-11442
▁ibodè	-11443
▁idipo	-11444
▁idiwọ	-11445
▁idoju	-11446
▁iduro	-11447
▁ijiya	-11448
▁ikede	-11449
▁ikeji	-11450
▁ikọlu	-11451
▁imulo	-11452
▁ireti	-11453
▁isoto	-11454
▁itemo	-11455
▁iṣelu	-11456
▁iṣẹju	-11457
▁jijin	-11458
▁karún	-11459
▁kínín	-11460
▁laaye	-11461
▁lòpọ̀	-11462
▁lẹ́rú	-11463
▁lọ́ba	-11464
▁model	-11465
▁mélòó	-11466
▁mọ̀nà	-11467
▁niiṣe	-11468
▁ninla	-11469
▁nitro	-11470
▁náírà	-11471
▁nọmba	-11472
▁ogóje	-11473
▁ojude	-11474
▁ojúṣe	-11475
▁olowo	-11476
▁oludi	-11477
▁onílé	-11478
▁onílù	-11479
▁ounje	-11480
▁o̟mo̟	-11481
▁pẹrẹu	-11482
▁redio	-11483
▁siṣẹ́	-11484
▁sópin	-11485
▁sẹ̀dá	-11486
▁tenis	-11487
▁tiwon	-11488
▁ungbe	-11489
▁wádìí	-11490
▁wẹẹrẹ	-11491
▁Àjànà	-11492
▁Àlàbí	-11493
▁Àpèjá	-11494
▁Àpólà	-11495
▁Ààfin	-11496
▁Èkejì	-11497
▁Ìfipá	-11498
▁Ìlànà	-11499
▁Ìpólé	-11500
▁Òkìtì	-11501
▁Òrìsà	-11502
▁àfòmó	-11503
▁àkàrà	-11504
▁àkólé	-11505
▁àpapò	-11506
▁àwo̟n	-11507
▁àwọ̀n	-11508
▁àwọ́n	-11509
▁áwọ̀ń	-11510
▁ìdajì	-11511
▁ìgbín	-11512
▁ìlanà	-11513
▁ìmúná	-11514
▁ìrora	-11515
▁ìròrí	-11516
▁ìsàlè	-11517
▁ìsèlú	-11518
▁ìwúlò	-11519
▁ìwúrí	-11520
▁ògidì	-11521
▁Ṣàngó	-11522
▁Ṣáájú	-11523
▁ẹ̀gbà	-11524
▁ẹ̀ran	-11525
▁ẹ́kọ̀	-11526
▁Ọ̀jẹ̀	-11527
▁Ọ̀kán	-11528
▁Ọ̀wọ́	-11529
▁ọgbẹ́	-11530
▁ọgbọn	-11531
▁ọlọpa	-11532
▁ọ̀fẹ́	-11533
▁ọ̀fọ̀	-11534
▁ọ̀ràn	-11535
▁ọ̀ṣẹ̀	-11536
Richard	-11537
aṣẹ̀ṣẹ̀	-11538
bẹ́ẹ̀tì	-11539
carboxy	-11540
chelles	-11541
chinohe	-11542
forming	-11543
gbéjáde	-11544
gorithm	-11545
hampton	-11546
ksijini	-11547
lombian	-11548
milọ́lá	-11549
májìrín	-11550
politan	-11551
raction	-11552
ringbok	-11553
ristian	-11554
sẹ̀jayé	-11555
tóyọ̀sí	-11556
ultural	-11557
western	-11558
wọ̀nrọ̀	-11559
ylvania	-11560
ìdárayá	-11561
ǹtarìgì	-11562
ṣípàrọ̀	-11563
▁Adaora	-11564
▁Agbájé	-11565
▁Ajagun	-11566
▁Akọ̀wé	-11567
▁Alàgbà	-11568
▁Aláayè	-11569
▁Alárẹ̀	-11570
▁Amstel	-11571
▁Ashadu	-11572
▁Aṣòfin	-11573
▁Bailey	-11574
▁Bakwai	-11575
▁Bassey	-11576
▁Bendel	-11577
▁Berlin	-11578
▁Bresch	-11579
▁Burger	-11580
▁Bíbélì	-11581
▁Bọ́sẹ̀	-11582
▁Castle	-11583
▁Comedy	-11584
▁Disney	-11585
▁Doctor	-11586
▁Edewor	-11587
▁Edmund	-11588
▁Empire	-11589
▁Esther	-11590
▁Examin	-11591
▁Flower	-11592
▁Forbes	-11593
▁Fortun	-11594
▁French	-11595
▁Garden	-11596
▁Geogra	-11597
▁Graham	-11598
▁Gùyánà	-11599
▁Halima	-11600
▁Hamzat	-11601
▁Hawaii	-11602
▁Helena	-11603
▁Hughes	-11604
▁Ijeoma	-11605
▁Iranṣẹ	-11606
▁Itálíà	-11607
▁Jemani	-11608
▁Jeremy	-11609
▁Johann	-11610
▁Kaduna	-11611
▁Kejila	-11612
▁Kroati	-11613
▁Kẹtàlá	-11614
▁Latini	-11615
▁Legacy	-11616
▁Ludwig	-11617
▁Láàrín	-11618
▁Lẹ̀yìn	-11619
▁Maersk	-11620
▁Mahara	-11621
▁Malawi	-11622
▁Melvin	-11623
▁Monica	-11624
▁Moremi	-11625
▁Ndiaye	-11626
▁Newman	-11627
▁Nsukka	-11628
▁Nìjẹ̀r	-11629
▁Níwọ̀n	-11630
▁Olimpi	-11631
▁Ológun	-11632
▁Olùkọ́	-11633
▁Orileo	-11634
▁Pilatu	-11635
▁Prince	-11636
▁Region	-11637
▁Rights	-11638
▁Rotuma	-11639
▁Rónkẹ́	-11640
▁Sahara	-11641
▁Script	-11642
▁Shalom	-11643
▁Silver	-11644
▁Surtie	-11645
▁Sàràkí	-11646
▁Taraba	-11647
▁Techni	-11648
▁Thorns	-11649
▁Tinubu	-11650
▁Tufalu	-11651
▁Tuntun	-11652
▁Univer	-11653
▁Varela	-11654
▁Vermes	-11655
▁Yousaf	-11656
▁Yvonne	-11657
▁agbani	-11658
▁agbari	-11659
▁agbede	-11660
▁ajodun	-11661
▁akoewi	-11662
▁akoole	-11663
▁akọ́lé	-11664
▁alágbà	-11665
▁ammoni	-11666
▁amofin	-11667
▁anfani	-11668
▁araalu	-11669
▁associ	-11670
▁atunṣe	-11671
▁aṣofin	-11672
▁carbon	-11673
▁corona	-11674
▁darukọ	-11675
▁déédéé	-11676
▁dókítà	-11677
▁ewadun	-11678
▁gbadun	-11679
▁gbagbo	-11680
▁gbeyin	-11681
▁gbìmọ̀	-11682
▁gẹ̀gẹ̀	-11683
▁helium	-11684
▁ibeere	-11685
▁igbala	-11686
▁igbimo	-11687
▁ijinlẹ	-11688
▁ikanni	-11689
▁immuno	-11690
▁iranti	-11691
▁isokan	-11692
▁iwadii	-11693
▁iṣagbe	-11694
▁iṣọkan	-11695
▁kedere	-11696
▁kukuru	-11697
▁kálukú	-11698
▁kíákíá	-11699
▁kúkúrú	-11700
▁kẹ́kọ̀	-11701
▁lokiki	-11702
▁lárugẹ	-11703
▁látàri	-11704
▁láíláí	-11705
▁lẹ̀yìn	-11706
▁lọ́rùn	-11707
▁lọ́sẹ̀	-11708
▁mejila	-11709
▁metres	-11710
▁nipase	-11711
▁nitosi	-11712
▁onkowe	-11713
▁onkọwe	-11714
▁onígun	-11715
▁oríṣìí	-11716
▁osuwon	-11717
▁pegedé	-11718
▁pejulo	-11719
▁pínpín	-11720
▁ránpẹ́	-11721
▁sàlàyé	-11722
▁sánmọ̀	-11723
▁súnmọ́	-11724
▁techno	-11725
▁titele	-11726
▁tounje	-11727
▁tọmọdé	-11728
▁unsise	-11729
▁whitef	-11730
▁wákàtí	-11731
▁yanran	-11732
▁yorisi	-11733
▁Àfikún	-11734
▁Àkọ́lé	-11735
▁Àngólà	-11736
▁Àṣàkẹ́	-11737
▁Ìkàrẹ́	-11738
▁Ìpínlè	-11739
▁Ògbójú	-11740
▁Ògbóni	-11741
▁Òsogbo	-11742
▁àlùfáà	-11743
▁ànfaní	-11744
▁àìlera	-11745
▁àìmọye	-11746
▁ìbàdàn	-11747
▁ìbàjẹ́	-11748
▁ìdìpọ̀	-11749
▁ìdíwọ́	-11750
▁ìdọ̀tí	-11751
▁ìgbìmò	-11752
▁ìkọ́lé	-11753
▁ìràwọ̀	-11754
▁ìsinmi	-11755
▁ìsẹ̀dá	-11756
▁ìṣiṣẹ́	-11757
▁òtítọ́	-11758
▁ṣalaye	-11759
▁ṣùgbọn	-11760
▁Ẹlẹ́ẹ̀	-11761
▁ẹnikan	-11762
▁ẹ̀kejì	-11763
▁ọlọ́mọ	-11764
▁ọ̀mùtí	-11765
National	-11766
agbeyewo	-11767
bìótíìkì	-11768
ctropion	-11769
daniloro	-11770
erations	-11771
fowoyeku	-11772
húnrìnwá	-11773
ibagbepo	-11774
luential	-11775
okomooka	-11776
onaiyipo	-11777
petition	-11778
petumodu	-11779
pọ̀lọpọ̀	-11780
silicate	-11781
terfalls	-11782
▁Abdulsa	-11783
▁Abiodun	-11784
▁Adetiba	-11785
▁Advance	-11786
▁Anjorin	-11787
▁Arméníà	-11788
▁Atlanta	-11789
▁Bantoid	-11790
▁Baptist	-11791
▁Bayelsa	-11792
▁Belgium	-11793
▁Beverly	-11794
▁Calabar	-11795
▁Changes	-11796
▁Climate	-11797
▁Cynthia	-11798
▁Dahomey	-11799
▁Defence	-11800
▁Dialect	-11801
▁Dọ́kítà	-11802
▁Edochie	-11803
▁Eritrea	-11804
▁Erékùsù	-11805
▁Gbongan	-11806
▁Herbert	-11807
▁Ifoloke	-11808
▁Igbagbọ	-11809
▁Justice	-11810
▁Kampala	-11811
▁Kashmir	-11812
▁LaBelle	-11813
▁Ládípọ̀	-11814
▁Malaika	-11815
▁Manager	-11816
▁Married	-11817
▁Mohamed	-11818
▁Mọ́remí	-11819
▁Nairobi	-11820
▁Nigbati	-11821
▁Ofurufu	-11822
▁Olumide	-11823
▁Olusola	-11824
▁Olympic	-11825
▁Olóògbé	-11826
▁Olúmoyà	-11827
▁Orlando	-11828
▁Osotule	-11829
▁Oyènúsì	-11830
▁Oyétòrò	-11831
▁Pacific	-11832
▁Passion	-11833
▁Pauline	-11834
▁Roberts	-11835
▁Rolling	-11836
▁Rómáànù	-11837
▁Sayensi	-11838
▁Sisters	-11839
▁Solomon	-11840
▁Stephen	-11841
▁Tokelau	-11842
▁Tristan	-11843
▁Webster	-11844
▁YouTube	-11845
▁adarapo	-11846
▁ajakale	-11847
▁ajakaye	-11848
▁akosile	-11849
▁alumino	-11850
▁arìnrìn	-11851
▁atọ́kun	-11852
▁biliọnu	-11853
▁culture	-11854
▁diboyan	-11855
▁egungun	-11856
▁egúngún	-11857
▁enimeji	-11858
▁erékùsù	-11859
▁fìlísíà	-11860
▁gbèyawó	-11861
▁idakeji	-11862
▁ifilelẹ	-11863
▁ifilole	-11864
▁ifilọlẹ	-11865
▁igbagbo	-11866
▁ijiroro	-11867
▁ijẹrisi	-11868
▁ilaorun	-11869
▁inuarin	-11870
▁irapada	-11871
▁irinajo	-11872
▁itọkasi	-11873
▁iwariri	-11874
▁kanṣoṣo	-11875
▁kílíìkì	-11876
▁kọkanla	-11877
▁kọmputa	-11878
▁lùgbàdì	-11879
▁nimọran	-11880
▁niyanju	-11881
▁olukọni	-11882
▁olókìkí	-11883
▁ominira	-11884
▁oniṣowo	-11885
▁oǹkọ̀wé	-11886
▁píparẹ́	-11887
▁Àjọ̀dún	-11888
▁Àkíyèsí	-11889
▁Ìṣọ̀kan	-11890
▁àlàáfíà	-11891
▁àmójútó	-11892
▁ìdojúkọ	-11893
▁ìdádúró	-11894
▁ìgbàgbó	-11895
▁ìlẹ̀kẹ̀	-11896
▁ìmúlára	-11897
▁ìmọ̀ràn	-11898
▁ìpoògùn	-11899
▁ìrìnàjò	-11900
▁ìrọ̀rùn	-11901
▁ìsèjọba	-11902
▁ìwọ̀nba	-11903
▁òṣùwọ̀n	-11904
▁ṣafihan	-11905
▁ṣọ̀mbọ̀	-11906
▁Ẹ̀gbádò	-11907
▁ẹ̀kẹ́ta	-11908
▁ẹ́límẹ̀	-11909
▁ọlọgbọn	-11910
▁ọ̀mọ̀wé	-11911
dinlogoji	-11912
dínlógóje	-11913
dẹ́gbẹ̀ta	-11914
gidijagan	-11915
hilosophy	-11916
unication	-11917
▁Aafirika	-11918
▁Abimbola	-11919
▁Adédàpọ̀	-11920
▁Adétọ̀nà	-11921
▁Agbelebu	-11922
▁Akádẹ́mì	-11923
▁Anglican	-11924
▁Attorney	-11925
▁Babaláwo	-11926
▁Baṣọ̀run	-11927
▁Blinkoff	-11928
▁Brothers	-11929
▁Bákannáà	-11930
▁Channels	-11931
▁Collabor	-11932
▁Dahlberg	-11933
▁Dramatic	-11934
▁Florence	-11935
▁Folawiyo	-11936
▁Fọláṣadé	-11937
▁Gbọ̀ngán	-11938
▁Guardian	-11939
▁Ilegeesi	-11940
▁Ilésanmí	-11941
▁Kansiime	-11942
▁Litireso	-11943
▁Mountain	-11944
▁Mugatsia	-11945
▁Muhammed	-11946
▁Muvhango	-11947
▁Nàìjíría	-11948
▁Nàíjírìa	-11949
▁Olympiki	-11950
▁Olúbákin	-11951
▁Paradise	-11952
▁Patience	-11953
▁Pictures	-11954
▁Presiden	-11955
▁Puntland	-11956
▁Samantha	-11957
▁Security	-11958
▁Sylvanus	-11959
▁Trinidad	-11960
▁Universi	-11961
▁agbátẹrù	-11962
▁alibọọmu	-11963
▁aládàáni	-11964
▁apaariwa	-11965
▁constitu	-11966
▁elomiran	-11967
▁ifarahan	-11968
▁iṣafihan	-11969
▁káràkátà	-11970
▁kọ̀mpútà	-11971
▁language	-11972
▁láánfàní	-11973
▁lẹ́kọ̀ọ́	-11974
▁munadoko	-11975
▁musulumi	-11976
▁mílíọ́nù	-11977
▁nigbamii	-11978
▁onigbale	-11979
▁oníṣègùn	-11980
▁pharmaco	-11981
▁question	-11982
▁sibẹsibẹ	-11983
▁sáyẹ́nsì	-11984
▁tọkọtaya	-11985
▁Àmẹ́ríkà	-11986
▁àgídìgbo	-11987
▁àlùmọ́nì	-11988
▁àtúpalẹ̀	-11989
▁ìbànújẹ́	-11990
▁ìfarahàn	-11991
▁ìpéjọpọ̀	-11992
▁ìṣàfihàn	-11993
▁ẹgbẹ̀rin	-11994
▁ẹlẹ́kejì	-11995
▁ọmọlúàbí	-11996
prehensive	-11997
wanilẹnuwo	-11998
ìfowópamọ́	-11999
▁Arábìnrin	-12000
▁Arákùnrin	-12001
▁Augustine	-12002
▁Confedera	-12003
▁Ebonylife	-12004
▁Edinburgh	-12005
▁Estifanos	-12006
▁Hachinohe	-12007
▁Idunadura	-12008
▁Josephine	-12009
▁Methodist	-12010
▁Muhammadu	-12011
▁Pombajira	-12012
▁Soundcity	-12013
▁Stephanie	-12014
▁agbófinró	-12015
▁agbẹjọ́rò	-12016
▁aladanida	-12017
▁apakokoro	-12018
▁dìgbòlugi	-12019
▁ilọsiwaju	-12020
▁kọ̀m̀pútà	-12021
▁nígbẹ̀yìn	-12022
▁ojoojúmọ́	-12023
▁oludasiṣẹ	-12024
▁Írẹ́lándì	-12025
▁àbíkẹ́yìn	-12026
▁ìbágbépọ̀	-12027
▁ìgbàmíràn	-12028
▁ìgbékalẹ̀	-12029
▁ìyàsọ́tọ̀	-12030
▁Ẹfúnṣetán	-12031
▁ẹ̀dọ̀fóró	-12032
▁Ọbalùfọ̀n	-12033
▁Ọdẹ́gbàmí	-12034
▁ọmọkunrin	-12035
▁Aríṣekọ́lá	-12036
▁Atọ̀pinpin	-12037
▁Birmingham	-12038
▁Casablanca	-12039
▁Excellence	-12040
▁Federalist	-12041
▁Initiative	-12042
▁Literature	-12043
▁Nẹ́dálándì	-12044
▁Performing	-12045
▁Publishing	-12046
▁Revolution	-12047
▁Seychelles	-12048
▁Supporting	-12049
▁Wikipẹ́díà	-12050
▁mẹ́tẹ̀ẹ̀ta	-12051
▁onígbàgbọ́	-12052
▁telifisonu	-12053
▁ẹlẹ́ktrónì	-12054
▁ọ̀kọ̀ọ̀kan	-12055
dínlọ́gọ́rin	-12056
ẹ̀ẹ́dọ́gbọ̀n	-12057
▁Anafilasisi	-12058
▁Certificate	-12059
▁Competition	-12060
▁Examination	-12061
▁Idanilaraya	-12062
▁Ileobaluaye	-12063
▁Orímóògùnjé	-12064
▁Oríṣìíríṣìí	-12065
▁Progressive	-12066
▁lọ́pọ̀lọpọ̀	-12067
▁nigbagbogbo	-12068
▁orísìírísìí	-12069
▁ẹ̀rankòrónà	-12070
▁ẹ̀rànkòrónà	-12071
▁Broadcasters	-12072
▁mẹ́tàlélógún	-12073
▁olùrànlọ́wọ́	-12074
▁álúfábẹ́ẹ̀tì	-12075
▁Championships	-12076
▁Comprehensive	-12077
▁Olowofowoyeku	-12078
▁mọ́kànlélógún	-12079
▁Administration	-12080
▁Orileolominira	-12081
▁ìfọwọ́sowọ́pọ̀	-12082
▁ifọrọwanilẹnuwo	-12083
%.	-12084
,”	-12085
-4	-12086
.4	-12087
.9	-12088
39	-12089
:1	-12090
AJ	-12091
AT	-12092
Ab	-12093
As	-12094
Ca	-12095
DH	-12096
De	-12097
DÒ	-12098
EP	-12099
FC	-12100
FP	-12101
FR	-12102
Fm	-12103
GN	-12104
GO	-12105
HP	-12106
Ho	-12107
II	-12108
Ju	-12109
Le	-12110
Lu	-12111
MA	-12112
MG	-12113
MS	-12114
Ni	-12115
OC	-12116
OH	-12117
OM	-12118
OS	-12119
OT	-12120
PE	-12121
Po	-12122
SR	-12123
TN	-12124
ao	-12125
ap	-12126
eb	-12127
ez	-12128
fy	-12129
hẹ	-12130
km	-12131
mẹ	-12132
oz	-12133
s̀	-12134
ws	-12135
ÁK	-12136
àl	-12137
áì	-12138
èd	-12139
ès	-12140
ìt	-12141
òn	-12142
òǹ	-12143
ńu	-12144
ńà	-12145
̀ẹ	-12146
ṣ́	-12147
Ẹ́	-12148
▁”	-12149
"),	-12150
-22	-12151
-54	-12152
.82	-12153
4),	-12154
9),	-12155
:03	-12156
AMA	-12157
AMS	-12158
ARC	-12159
Ade	-12160
Ali	-12161
Ben	-12162
COW	-12163
Cam	-12164
ECO	-12165
EDx	-12166
ELE	-12167
IDs	-12168
Ijo	-12169
Láń	-12170
May	-12171
NEC	-12172
Ode	-12173
Ori	-12174
PhD	-12175
Pop	-12176
Roi	-12177
Sah	-12178
Tro	-12179
WIN	-12180
aac	-12181
abe	-12182
ajú	-12183
ako	-12184
alo	-12185
amb	-12186
anì	-12187
apa	-12188
arm	-12189
arr	-12190
aux	-12191
bey	-12192
bic	-12193
bli	-12194
blé	-12195
boi	-12196
bre	-12197
bua	-12198
bín	-12199
bùú	-12200
cco	-12201
chs	-12202
cow	-12203
cre	-12204
dal	-12205
diẹ	-12206
djo	-12207
dus	-12208
dáá	-12209
eda	-12210
edi	-12211
edé	-12212
ela	-12213
elm	-12214
eno	-12215
erm	-12216
ert	-12217
eya	-12218
fee	-12219
fur	-12220
fus	-12221
féé	-12222
fíá	-12223
fòn	-12224
f́i	-12225
gbú	-12226
ged	-12227
ghe	-12228
gis	-12229
git	-12230
glo	-12231
gol	-12232
gor	-12233
gow	-12234
gro	-12235
gua	-12236
gus	-12237
gvà	-12238
gé̟	-12239
gìn	-12240
gúí	-12241
gúǹ	-12242
had	-12243
hos	-12244
hot	-12245
hou	-12246
hán	-12247
hín	-12248
ice	-12249
idu	-12250
ika	-12251
iko	-12252
ils	-12253
ilà	-12254
ima	-12255
ipa	-12256
isé	-12257
jan	-12258
je̟	-12259
jia	-12260
jid	-12261
ked	-12262
keh	-12263
kim	-12264
kir	-12265
kit	-12266
klé	-12267
kou	-12268
kri	-12269
kro	-12270
kul	-12271
kwo	-12272
kèn	-12273
kèè	-12274
kìá	-12275
lid	-12276
lik	-12277
llà	-12278
loo	-12279
lti	-12280
làá	-12281
líì	-12282
mas	-12283
mbù	-12284
mid	-12285
mne	-12286
mro	-12287
mus	-12288
nda	-12289
nin	-12290
nlé	-12291
nop	-12292
nàn	-12293
nìn	-12294
odi	-12295
ogi	-12296
ois	-12297
oja	-12298
oje	-12299
omy	-12300
oon	-12301
oph	-12302
opy	-12303
org	-12304
oṣó	-12305
pez	-12306
pis	-12307
plo	-12308
pos	-12309
pta	-12310
pts	-12311
pum	-12312
rbú	-12313
rel	-12314
rew	-12315
ric	-12316
riǹ	-12317
ráò	-12318
ríá	-12319
róò	-12320
rùń	-12321
saw	-12322
sih	-12323
sts	-12324
sáá	-12325
sáń	-12326
síá	-12327
tag	-12328
tau	-12329
tay	-12330
ths	-12331
thy	-12332
til	-12333
tró	-12334
tsà	-12335
tts	-12336
tul	-12337
tum	-12338
tés	-12339
tòó	-12340
udi	-12341
uds	-12342
ull	-12343
urs	-12344
usi	-12345
uta	-12346
ute	-12347
vet	-12348
von	-12349
waa	-12350
war	-12351
wel	-12352
wun	-12353
wèé	-12354
xhi	-12355
yat	-12356
yìi	-12357
yùn	-12358
zai	-12359
zel	-12360
zok	-12361
zuo	-12362
Èdè	-12363
Èjì	-12364
Ìdè	-12365
Ìwà	-12366
Òyè	-12367
àni	-12368
àná	-12369
ànì	-12370
áti	-12371
èji	-12372
èlú	-12373
èrò	-12374
éci	-12375
éjì	-12376
éle	-12377
éní	-12378
ìbá	-12379
ìdì	-12380
ìjọ	-12381
ìlí	-12382
ìwe	-12383
íkì	-12384
òbí	-12385
òdò	-12386
òpò	-12387
òpó	-12388
òrì	-12389
òsì	-12390
óde	-12391
ólù	-12392
ónì	-12393
ónù	-12394
órá	-12395
óyè	-12396
ùfú	-12397
ùnù	-12398
ńbà	-12399
ńgò	-12400
ǹda	-12401
ǹtì	-12402
̟ni	-12403
ṣín	-12404
ẹlá	-12405
ẹno	-12406
ẹsẹ	-12407
ẹyẹ	-12408
ẹ̀ẹ	-12409
ọlu	-12410
ọ́ù	-12411
–14	-12412
–15	-12413
▁(8	-12414
▁5.	-12415
▁7,	-12416
▁8.	-12417
▁9,	-12418
▁AC	-12419
▁CM	-12420
▁DE	-12421
▁Eg	-12422
▁Fó	-12423
▁Gn	-12424
▁Hé	-12425
▁IK	-12426
▁IM	-12427
▁Iv	-12428
▁Jh	-12429
▁Kw	-12430
▁MB	-12431
▁MP	-12432
▁NC	-12433
▁Nj	-12434
▁Nt	-12435
▁OC	-12436
▁Om	-12437
▁Où	-12438
▁Pr	-12439
▁Pé	-12440
▁Rà	-12441
▁Rí	-12442
▁SK	-12443
▁Sọ	-12444
▁Ts	-12445
▁Tw	-12446
▁Ty	-12447
▁Tò	-12448
▁Uk	-12449
▁Va	-12450
▁Wu	-12451
▁Zi	-12452
▁cm	-12453
▁dù	-12454
▁eo	-12455
▁eé	-12456
▁fè	-12457
▁fú	-12458
▁gè	-12459
▁hù	-12460
▁ję	-12461
▁kg	-12462
▁kn	-12463
▁ll	-12464
▁mg	-12465
▁my	-12466
▁nị	-12467
▁py	-12468
▁rì	-12469
▁rù	-12470
▁sp	-12471
▁ul	-12472
▁zi	-12473
▁Èé	-12474
▁ÌS	-12475
▁Ìf	-12476
▁Òò	-12477
▁Òǹ	-12478
▁áá	-12479
▁áń	-12480
▁ìg	-12481
▁ìs	-12482
▁ín	-12483
▁ńà	-12484
▁Ṣà	-12485
Agbe	-12486
Bàbá	-12487
Elia	-12488
Gues	-12489
High	-12490
Ibra	-12491
Igbo	-12492
Ijes	-12493
Semi	-12494
Tech	-12495
UELE	-12496
Ukwu	-12497
WNTV	-12498
Week	-12499
aasi	-12500
ador	-12501
ague	-12502
aiah	-12503
aira	-12504
aiye	-12505
akia	-12506
akọọ	-12507
alci	-12508
alum	-12509
amah	-12510
amor	-12511
anna	-12512
anzi	-12513
areg	-12514
arez	-12515
arim	-12516
arne	-12517
aroa	-12518
aryn	-12519
ashi	-12520
aste	-12521
asus	-12522
ator	-12523
atọ́	-12524
baey	-12525
bals	-12526
band	-12527
bank	-12528
barà	-12529
beat	-12530
beki	-12531
bers	-12532
beru	-12533
biya	-12534
bobo	-12535
bojo	-12536
boko	-12537
boni	-12538
bonu	-12539
bosa	-12540
bowe	-12541
bral	-12542
bson	-12543
bubu	-12544
budo	-12545
bury	-12546
bàbá	-12547
bèbè	-12548
bìní	-12549
bìrà	-12550
bísí	-12551
bótó	-12552
bùkù	-12553
bọmi	-12554
bọmì	-12555
ches	-12556
chom	-12557
cian	-12558
cies	-12559
cium	-12560
cken	-12561
cleo	-12562
cles	-12563
code	-12564
cuit	-12565
cure	-12566
daba	-12567
daru	-12568
dase	-12569
date	-12570
days	-12571
dens	-12572
dish	-12573
diwe	-12574
doje	-12575
dota	-12576
down	-12577
duka	-12578
duma	-12579
dèyí	-12580
dédé	-12581
dìde	-12582
dìro	-12583
dídá	-12584
díló	-12585
dípò	-12586
díye	-12587
dóta	-12588
edro	-12589
eesi	-12590
ellu	-12591
enga	-12592
enny	-12593
ento	-12594
ents	-12595
entu	-12596
erce	-12597
eron	-12598
erre	-12599
fant	-12600
ffot	-12601
fied	-12602
fita	-12603
fiwe	-12604
fort	-12605
foru	-12606
fáfá	-12607
fáìt	-12608
fòmó	-12609
f́iṣ	-12610
gaga	-12611
gale	-12612
gari	-12613
gban	-12614
gbọọ	-12615
gels	-12616
gene	-12617
giem	-12618
goni	-12619
goro	-12620
gote	-12621
guru	-12622
gàjí	-12623
gèrè	-12624
gùnr	-12625
habi	-12626
habo	-12627
hama	-12628
head	-12629
hich	-12630
hidi	-12631
holm	-12632
hosa	-12633
hoto	-12634
igny	-12635
ikun	-12636
inal	-12637
ineb	-12638
inet	-12639
ings	-12640
jaye	-12641
jayi	-12642
jera	-12643
jerò	-12644
jibo	-12645
jijì	-12646
jolú	-12647
joni	-12648
jèjì	-12649
jèmú	-12650
jíkú	-12651
jòba	-12652
jùmú	-12653
jọwọ	-12654
kaba	-12655
kalè	-12656
keko	-12657
keti	-12658
koja	-12659
koni	-12660
kopo	-12661
koti	-12662
kowo	-12663
kubo	-12664
kuwo	-12665
kàyè	-12666
kárà	-12667
kárí	-12668
kéyí	-12669
kíbi	-12670
kíní	-12671
kòró	-12672
kòtò	-12673
kókó	-12674
kólá	-12675
kóló	-12676
kórè	-12677
kùru	-12678
kẹlẹ	-12679
lade	-12680
ladé	-12681
laka	-12682
lapa	-12683
lebe	-12684
lela	-12685
lemu	-12686
lemọ	-12687
lerk	-12688
lest	-12689
leum	-12690
leur	-12691
lewa	-12692
lile	-12693
loko	-12694
losi	-12695
loun	-12696
love	-12697
lufe	-12698
lule	-12699
luti	-12700
luwa	-12701
lákà	-12702
lámù	-12703
lápá	-12704
láyà	-12705
léke	-12706
léró	-12707
létí	-12708
lófò	-12709
lójú	-12710
lólá	-12711
lúké	-12712
lẹbẹ	-12713
lọmọ	-12714
mael	-12715
mais	-12716
male	-12717
matu	-12718
mbly	-12719
memb	-12720
mila	-12721
milá	-12722
mimọ	-12723
mini	-12724
misi	-12725
miso	-12726
mode	-12727
molè	-12728
mood	-12729
moso	-12730
mozi	-12731
màlà	-12732
màwé	-12733
mánì	-12734
méje	-12735
míst	-12736
mólè	-12737
nado	-12738
naji	-12739
nake	-12740
nani	-12741
nell	-12742
neth	-12743
ngbé	-12744
nifa	-12745
ninu	-12746
nium	-12747
niya	-12748
ntẹ̀	-12749
numọ	-12750
nìṣe	-12751
níná	-12752
nẹ́g	-12753
oids	-12754
onse	-12755
oose	-12756
oràn	-12757
osun	-12758
ouch	-12759
ouda	-12760
pali	-12761
pano	-12762
part	-12763
pent	-12764
pert	-12765
pher	-12766
phia	-12767
port	-12768
pted	-12769
pter	-12770
pàdé	-12771
pèlé	-12772
pèlú	-12773
péle	-12774
péìn	-12775
pónà	-12776
quin	-12777
quoi	-12778
raga	-12779
raud	-12780
rawò	-12781
rees	-12782
regi	-12783
rene	-12784
resh	-12785
resi	-12786
rest	-12787
reti	-12788
rick	-12789
rina	-12790
riwo	-12791
room	-12792
ross	-12793
roup	-12794
ràpá	-12795
ránì	-12796
ráyé	-12797
rìká	-12798
rìlì	-12799
rìsí	-12800
ríba	-12801
ríjọ	-12802
ríka	-12803
ríní	-12804
rínò	-12805
rùbà	-12806
rùbá	-12807
rúdu	-12808
rẹwà	-12809
rọja	-12810
seku	-12811
self	-12812
sels	-12813
sese	-12814
shop	-12815
sica	-12816
sifi	-12817
simu	-12818
sire	-12819
sloo	-12820
sobu	-12821
soko	-12822
some	-12823
soon	-12824
soud	-12825
sych	-12826
sábà	-12827
sárù	-12828
sìyí	-12829
sípà	-12830
síse	-12831
síté	-12832
sítí	-12833
síọ̀	-12834
súsú	-12835
s̟è̟	-12836
taki	-12837
temi	-12838
temu	-12839
thau	-12840
thun	-12841
tier	-12842
tinu	-12843
tise	-12844
tomi	-12845
toni	-12846
toun	-12847
town	-12848
trol	-12849
ttom	-12850
tual	-12851
tumọ	-12852
tuna	-12853
tuwo	-12854
tyle	-12855
tàlá	-12856
tìrí	-12857
túmù	-12858
tọmọ	-12859
ulga	-12860
unes	-12861
urai	-12862
uros	-12863
ushi	-12864
usuf	-12865
utch	-12866
vans	-12867
vich	-12868
vier	-12869
vies	-12870
view	-12871
vits	-12872
wala	-12873
wenu	-12874
weto	-12875
wobo	-12876
wola	-12877
wumi	-12878
wuwo	-12879
wuye	-12880
wórì	-12881
wúsá	-12882
wọlá	-12883
wọra	-12884
yale	-12885
yate	-12886
yida	-12887
ylon	-12888
yola	-12889
yèdé	-12890
yẹlé	-12891
zies	-12892
àfin	-12893
àlúù	-12894
àrán	-12895
àìsí	-12896
árín	-12897
áìjì	-12898
ègbè	-12899
èésì	-12900
íríà	-12901
òkan	-12902
únlé	-12903
ǹgbá	-12904
̟gba	-12905
̟gé̟	-12906
ṣowò	-12907
ẹkan	-12908
ẹ̀kọ	-12909
ẹ́sì	-12910
ọgan	-12911
ọgun	-12912
ọwọ́	-12913
ọ̀dé	-12914
ọ́nd	-12915
ọ́nu	-12916
ọ́yà	-12917
▁(23	-12918
▁(24	-12919
▁10,	-12920
▁11.	-12921
▁111	-12922
▁19,	-12923
▁211	-12924
▁22,	-12925
▁24.	-12926
▁261	-12927
▁27,	-12928
▁28,	-12929
▁3.3	-12930
▁300	-12931
▁31,	-12932
▁31.	-12933
▁323	-12934
▁324	-12935
▁329	-12936
▁335	-12937
▁354	-12938
▁360	-12939
▁387	-12940
▁4.5	-12941
▁409	-12942
▁420	-12943
▁452	-12944
▁472	-12945
▁474	-12946
▁481	-12947
▁490	-12948
▁502	-12949
▁541	-12950
▁550	-12951
▁561	-12952
▁564	-12953
▁591	-12954
▁597	-12955
▁600	-12956
▁602	-12957
▁633	-12958
▁639	-12959
▁659	-12960
▁685	-12961
▁690	-12962
▁719	-12963
▁760	-12964
▁779	-12965
▁80%	-12966
▁820	-12967
▁883	-12968
▁90%	-12969
▁911	-12970
▁935	-12971
▁940	-12972
▁943	-12973
▁958	-12974
▁996	-12975
▁997	-12976
▁AMC	-12977
▁ATP	-12978
▁Abé	-12979
▁Ado	-12980
▁Agb	-12981
▁Age	-12982
▁Ago	-12983
▁Ans	-12984
▁Apè	-12985
▁Aqu	-12986
▁Arò	-12987
▁Asa	-12988
▁Ast	-12989
▁Así	-12990
▁Ayo	-12991
▁Aṣa	-12992
▁BET	-12993
▁Bed	-12994
▁Bis	-12995
▁Bol	-12996
▁Boy	-12997
▁CEE	-12998
▁Cas	-12999
▁Cla	-13000
▁Cos	-13001
▁Din	-13002
▁Dod	-13003
▁Dog	-13004
▁Dom	-13005
▁Díá	-13006
▁Ear	-13007
▁Eas	-13008
▁Eke	-13009
▁Emi	-13010
▁Est	-13011
▁Eya	-13012
▁FRS	-13013
▁Fes	-13014
▁Flu	-13015
▁Fly	-13016
▁Frá	-13017
▁GDP	-13018
▁Gau	-13019
▁Gbi	-13020
▁Gbí	-13021
▁Gbò	-13022
▁Gbẹ	-13023
▁Gla	-13024
▁Gom	-13025
▁Gon	-13026
▁Hay	-13027
▁His	-13028
▁Hot	-13029
▁Hub	-13030
▁ICT	-13031
▁IPv	-13032
▁Ibà	-13033
▁Ide	-13034
▁Idí	-13035
▁Ijọ	-13036
▁Ing	-13037
▁Ipò	-13038
▁Isu	-13039
▁Iwu	-13040
▁Iṣé	-13041
▁Jim	-13042
▁Joh	-13043
▁Kad	-13044
▁Kal	-13045
▁Kee	-13046
▁Kle	-13047
▁Kon	-13048
▁Koo	-13049
▁Kra	-13050
▁Káà	-13051
▁Lic	-13052
▁Lom	-13053
▁Loo	-13054
▁MTN	-13055
▁Maa	-13056
▁Mem	-13057
▁Moh	-13058
▁Mwa	-13059
▁Máà	-13060
▁NBC	-13061
▁Nah	-13062
▁Nge	-13063
▁Nom	-13064
▁Not	-13065
▁Nur	-13066
▁Nut	-13067
▁OLX	-13068
▁Oce	-13069
▁Off	-13070
▁Oje	-13071
▁Ole	-13072
▁Ota	-13073
▁Oti	-13074
▁Otu	-13075
▁Our	-13076
▁Ous	-13077
▁PDP	-13078
▁Paa	-13079
▁Pil	-13080
▁Pin	-13081
▁Pín	-13082
▁Rhy	-13083
▁Rid	-13084
▁Rox	-13085
▁Rìn	-13086
▁STS	-13087
▁Sew	-13088
▁Sig	-13089
▁Sri	-13090
▁Sub	-13091
▁Sya	-13092
▁Sín	-13093
▁Tao	-13094
▁Teh	-13095
▁Top	-13096
▁Try	-13097
▁UBA	-13098
▁Uda	-13099
▁Udo	-13100
▁Una	-13101
▁Vin	-13102
▁Wai	-13103
▁Wan	-13104
▁Wee	-13105
▁Wes	-13106
▁Who	-13107
▁Wis	-13108
▁Wiz	-13109
▁Wum	-13110
▁Yaa	-13111
▁Yat	-13112
▁Yes	-13113
▁Yos	-13114
▁Yul	-13115
▁ace	-13116
▁afa	-13117
▁afo	-13118
▁afì	-13119
▁afó	-13120
▁akà	-13121
▁alè	-13122
▁arà	-13123
▁arí	-13124
▁arò	-13125
▁asò	-13126
▁atà	-13127
▁aṣí	-13128
▁ban	-13129
▁bio	-13130
▁bri	-13131
▁cir	-13132
▁clo	-13133
▁cru	-13134
▁dou	-13135
▁dáá	-13136
▁dẹ̀	-13137
▁eba	-13138
▁epi	-13139
▁esi	-13140
▁etu	-13141
▁eyí	-13142
▁fii	-13143
▁fáà	-13144
▁gbú	-13145
▁gil	-13146
▁grá	-13147
▁gán	-13148
▁hai	-13149
▁ham	-13150
▁has	-13151
▁her	-13152
▁his	-13153
▁ibẹ	-13154
▁ido	-13155
▁idá	-13156
▁igu	-13157
▁iké	-13158
▁ito	-13159
▁iyò	-13160
▁iṣi	-13161
▁jam	-13162
▁jan	-13163
▁jut	-13164
▁key	-13165
▁koo	-13166
▁kèé	-13167
▁kọn	-13168
▁les	-13169
▁leè	-13170
▁lim	-13171
▁loo	-13172
▁lát	-13173
▁mus	-13174
▁màa	-13175
▁méè	-13176
▁mẹẹ	-13177
▁nan	-13178
▁neo	-13179
▁nii	-13180
▁njẹ	-13181
▁nko	-13182
▁not	-13183
▁nto	-13184
▁nwo	-13185
▁nẹ́	-13186
▁nọ́	-13187
▁obe	-13188
▁obo	-13189
▁obí	-13190
▁okó	-13191
▁olò	-13192
▁omí	-13193
▁opó	-13194
▁osó	-13195
▁pal	-13196
▁pee	-13197
▁pòó	-13198
▁red	-13199
▁rom	-13200
▁sai	-13201
▁sec	-13202
▁ste	-13203
▁s̟à	-13204
▁sị́	-13205
▁tie	-13206
▁top	-13207
▁tor	-13208
▁tri	-13209
▁tàá	-13210
▁táí	-13211
▁tíó	-13212
▁tùń	-13213
▁une	-13214
▁ver	-13215
▁vol	-13216
▁waa	-13217
▁win	-13218
▁wòó	-13219
▁wẹ́	-13220
▁yán	-13221
▁yíí	-13222
▁yọ́	-13223
▁Àbà	-13224
▁Àbá	-13225
▁Àjo	-13226
▁Àmó	-13227
▁Àró	-13228
▁Àsà	-13229
▁Àtà	-13230
▁Àyà	-13231
▁Àṣẹ	-13232
▁Èbú	-13233
▁Èsú	-13234
▁Ìgè	-13235
▁Ìlu	-13236
▁Ìlò	-13237
▁Ìló	-13238
▁Ìpò	-13239
▁Ìsà	-13240
▁Ìsọ	-13241
▁Òdù	-13242
▁Òjò	-13243
▁Òlí	-13244
▁Òró	-13245
▁Òwò	-13246
▁Òṣo	-13247
▁àda	-13248
▁àga	-13249
▁àgé	-13250
▁àgù	-13251
▁àja	-13252
▁àjù	-13253
▁àko	-13254
▁àpẹ	-13255
▁àrá	-13256
▁àsì	-13257
▁àsó	-13258
▁àsẹ	-13259
▁àwá	-13260
▁àṣì	-13261
▁èlé	-13262
▁èpì	-13263
▁èro	-13264
▁èré	-13265
▁èrú	-13266
▁èto	-13267
▁ìbu	-13268
▁ìfò	-13269
▁ìgé	-13270
▁ìja	-13271
▁ìjẹ	-13272
▁ìka	-13273
▁ìlá	-13274
▁ìló	-13275
▁ìmo	-13276
▁ìpá	-13277
▁ìrá	-13278
▁ìrú	-13279
▁ìto	-13280
▁ìtò	-13281
▁ìwe	-13282
▁ìwo	-13283
▁ìya	-13284
▁ìyé	-13285
▁ìṣá	-13286
▁ìṣọ	-13287
▁ílé	-13288
▁íwé	-13289
▁íyá	-13290
▁òbi	-13291
▁òfu	-13292
▁òfú	-13293
▁ògo	-13294
▁ògó	-13295
▁òkò	-13296
▁òlò	-13297
▁òlù	-13298
▁òsù	-13299
▁òyì	-13300
▁ósì	-13301
▁Ṣàì	-13302
▁Ṣẹ́	-13303
▁ṣii	-13304
▁ṣọ́	-13305
▁Ẹnu	-13306
▁ẹlé	-13307
▁ẹpa	-13308
▁ẹru	-13309
▁ẹrù	-13310
▁Ọkọ	-13311
▁Ọla	-13312
▁Ọló	-13313
▁ọbà	-13314
▁ọla	-13315
▁ọmó	-13316
▁ọpọ	-13317
▁ọtá	-13318
▁ọ̀g	-13319
-1974	-13320
-2004	-13321
AMSER	-13322
Agege	-13323
Black	-13324
COWAS	-13325
EDECO	-13326
Green	-13327
Lagos	-13328
Láńsò	-13329
Orúkọ	-13330
abobo	-13331
adani	-13332
akoko	-13333
aline	-13334
amita	-13335
andro	-13336
anusi	-13337
araka	-13338
arawa	-13339
arida	-13340
atisi	-13341
atomu	-13342
ayika	-13343
ayoka	-13344
banja	-13345
beere	-13346
bella	-13347
beria	-13348
bitra	-13349
block	-13350
bonne	-13351
borne	-13352
bsite	-13353
bunmi	-13354
bánjọ	-13355
bérẹ̀	-13356
caria	-13357
cault	-13358
cheal	-13359
chest	-13360
ching	-13361
cilla	-13362
cking	-13363
ckson	-13364
crini	-13365
ctivi	-13366
dence	-13367
dingo	-13368
dinla	-13369
dinma	-13370
dirin	-13371
dodun	-13372
débọ̀	-13373
déédé	-13374
díláà	-13375
díran	-13376
dòkun	-13377
eping	-13378
erald	-13379
erure	-13380
esini	-13381
fador	-13382
feron	-13383
field	-13384
finro	-13385
fulde	-13386
funmi	-13387
funni	-13388
gagba	-13389
gbaja	-13390
gbamu	-13391
gbani	-13392
gbeni	-13393
gboyè	-13394
gbárá	-13395
gbède	-13396
gbèdè	-13397
gbìín	-13398
gbórò	-13399
gbọ̀ń	-13400
giers	-13401
ginal	-13402
gital	-13403
gorun	-13404
grass	-13405
guese	-13406
gọ́ta	-13407
hinti	-13408
hunsa	-13409
ilera	-13410
inimá	-13411
inist	-13412
inten	-13413
issan	-13414
iṣowo	-13415
jàgan	-13416
júoṣó	-13417
jẹ̀mu	-13418
jẹ̀ṣà	-13419
keyin	-13420
khrel	-13421
kinni	-13422
kiria	-13423
kohun	-13424
korin	-13425
ksidi	-13426
kufẹ̀	-13427
kunfà	-13428
kàlẹ̀	-13429
kànlá	-13430
kànlé	-13431
kánjú	-13432
kínní	-13433
kòókò	-13434
kóhun	-13435
kúnlé	-13436
kẹrin	-13437
kẹ̀ẹ́	-13438
kọ̀we	-13439
landì	-13440
lated	-13441
lavia	-13442
lavic	-13443
lekun	-13444
lexus	-13445
leyin	-13446
licon	-13447
litis	-13448
lokun	-13449
lopọ̀	-13450
léndé	-13451
léèdè	-13452
lópọ̀	-13453
lùmọ̀	-13454
lúgbú	-13455
lúkẹ́	-13456
lẹgbẹ	-13457
lẹhin	-13458
lẹwọ́	-13459
lẹ́yẹ	-13460
lọgun	-13461
lọ̀lá	-13462
lọ́jà	-13463
lọ́mọ	-13464
metic	-13465
mirin	-13466
màkin	-13467
máìkì	-13468
máíkà	-13469
mùjẹ̀	-13470
múyẹ́	-13471
mọṣẹ́	-13472
nando	-13473
night	-13474
ojuri	-13475
olyne	-13476
omsky	-13477
ongba	-13478
onian	-13479
onimo	-13480
oobya	-13481
oorùn	-13482
orado	-13483
orisi	-13484
orùbá	-13485
orúko	-13486
oòrun	-13487
parum	-13488
parun	-13489
pions	-13490
piter	-13491
pokes	-13492
ports	-13493
pture	-13494
putra	-13495
pámọ́	-13496
périe	-13497
píìkì	-13498
ranch	-13499
ranse	-13500
rbúdà	-13501
reate	-13502
rence	-13503
rical	-13504
rinwó	-13505
rántí	-13506
rélíà	-13507
rìírí	-13508
ríyìn	-13509
ròpọ̀	-13510
rùkóó	-13511
rẹ̀ẹ̀	-13512
rẹ́sì	-13513
rọ́mọ	-13514
siaye	-13515
sives	-13516
sodun	-13517
souri	-13518
stars	-13519
state	-13520
sọ́lá	-13521
table	-13522
tante	-13523
teral	-13524
teyin	-13525
thani	-13526
thony	-13527
tiful	-13528
tions	-13529
tives	-13530
torín	-13531
ttima	-13532
tungi	-13533
tìgbà	-13534
tììkì	-13535
túmọ̀	-13536
tẹ́rù	-13537
tọ̀mù	-13538
ublin	-13539
unity	-13540
uropa	-13541
urufú	-13542
venth	-13543
ventu	-13544
vieve	-13545
virin	-13546
waini	-13547
wandé	-13548
weran	-13549
wonyi	-13550
wọ̀ọ́	-13551
wọ́lò	-13552
yazid	-13553
yleft	-13554
yneke	-13555
yìnwá	-13556
àpọ́n	-13557
àárín	-13558
è̟kó̟	-13559
élemy	-13560
ìngúí	-13561
ìṣeré	-13562
òṣèré	-13563
ókítà	-13564
ńìkẹ́	-13565
ṣìṣẹ́	-13566
ṣíṣẹ́	-13567
ṣùpọ̀	-13568
ṣ̀èlú	-13569
ṣẹ̀yẹ	-13570
ṣẹ́po	-13571
ṣẹ́wó	-13572
ṣọ̀lá	-13573
ẹ̀dọ̀	-13574
ẹ̀sún	-13575
ẹ̀yọ̀	-13576
ẹ̀ṣẹ́	-13577
ọ̀fẹ́	-13578
ọ̀kùn	-13579
ọ̀lọ̀	-13580
ọ̀rẹ̀	-13581
ọ́njú	-13582
ọ́rọ́	-13583
–1925	-13584
▁(196	-13585
▁101.	-13586
▁1025	-13587
▁1075	-13588
▁1106	-13589
▁1137	-13590
▁1200	-13591
▁1224	-13592
▁1265	-13593
▁1328	-13594
▁1350	-13595
▁1400	-13596
▁1435	-13597
▁1450	-13598
▁1490	-13599
▁1498	-13600
▁1508	-13601
▁1521	-13602
▁1534	-13603
▁1550	-13604
▁1552	-13605
▁1569	-13606
▁1600	-13607
▁1616	-13608
▁1623	-13609
▁1632	-13610
▁1638	-13611
▁1645	-13612
▁1648	-13613
▁1651	-13614
▁1699	-13615
▁1704	-13616
▁1713	-13617
▁1726	-13618
▁1728	-13619
▁1745	-13620
▁1750	-13621
▁1757	-13622
▁1770	-13623
▁1775	-13624
▁1776	-13625
▁1777	-13626
▁1779	-13627
▁1780	-13628
▁1790	-13629
▁1791	-13630
▁1803	-13631
▁1806	-13632
▁1810	-13633
▁1814	-13634
▁1816	-13635
▁1817	-13636
▁1818	-13637
▁1824	-13638
▁1825	-13639
▁1829	-13640
▁1831	-13641
▁1833	-13642
▁1834	-13643
▁1844	-13644
▁1845	-13645
▁1846	-13646
▁1847	-13647
▁1850	-13648
▁1854	-13649
▁1862	-13650
▁1863	-13651
▁1867	-13652
▁1868	-13653
▁1871	-13654
▁1878	-13655
▁1879	-13656
▁1885	-13657
▁1886	-13658
▁1887	-13659
▁1892	-13660
▁1894	-13661
▁1896	-13662
▁1897	-13663
▁1898	-13664
▁1900	-13665
▁1908	-13666
▁1911	-13667
▁1915	-13668
▁1931	-13669
▁1932	-13670
▁2050	-13671
▁2095	-13672
▁2103	-13673
▁2155	-13674
▁2300	-13675
▁2315	-13676
▁2419	-13677
▁2477	-13678
▁2600	-13679
▁2723	-13680
▁2833	-13681
▁3000	-13682
▁3020	-13683
▁3326	-13684
▁3600	-13685
▁4524	-13686
▁4682	-13687
▁4867	-13688
▁5600	-13689
▁8895	-13690
▁9197	-13691
▁9275	-13692
▁93.7	-13693
▁978-	-13694
▁ALDH	-13695
▁Abun	-13696
▁Advo	-13697
▁Agbà	-13698
▁Ague	-13699
▁Aijẹ	-13700
▁Aini	-13701
▁Alan	-13702
▁Alli	-13703
▁Aláa	-13704
▁Amọ̀	-13705
▁Atta	-13706
▁Atun	-13707
▁Baby	-13708
▁Ball	-13709
▁Band	-13710
▁Bayi	-13711
▁Bere	-13712
▁Bobo	-13713
▁Bois	-13714
▁Boko	-13715
▁Bolí	-13716
▁Bose	-13717
▁Bour	-13718
▁Boya	-13719
▁Brus	-13720
▁Buzz	-13721
▁Bádé	-13722
▁Bísí	-13723
▁Call	-13724
▁Card	-13725
▁Cens	-13726
▁Cere	-13727
▁Chad	-13728
▁Chap	-13729
▁Chas	-13730
▁Chil	-13731
▁Chip	-13732
▁Cine	-13733
▁Clay	-13734
▁Club	-13735
▁Colo	-13736
▁Conn	-13737
▁Cont	-13738
▁Cook	-13739
▁Crow	-13740
▁Céci	-13741
▁Daar	-13742
▁Dama	-13743
▁Dari	-13744
▁Dark	-13745
▁Deba	-13746
▁Dere	-13747
▁Dest	-13748
▁Diou	-13749
▁Diva	-13750
▁Dosu	-13751
▁Down	-13752
▁Dárí	-13753
▁Dídá	-13754
▁Emir	-13755
▁Emma	-13756
▁Eron	-13757
▁Etim	-13758
▁Euba	-13759
▁Even	-13760
▁Evil	-13761
▁Eyes	-13762
▁Fair	-13763
▁Falz	-13764
▁Fash	-13765
▁Fest	-13766
▁Fifi	-13767
▁Folá	-13768
▁Fund	-13769
▁Gala	-13770
▁Gaya	-13771
▁Gidi	-13772
▁Gods	-13773
▁Hans	-13774
▁Haye	-13775
▁Head	-13776
▁Home	-13777
▁Homo	-13778
▁Igbi	-13779
▁Ikot	-13780
▁Inno	-13781
▁Iron	-13782
▁Isia	-13783
▁Isla	-13784
▁Jaco	-13785
▁Jazz	-13786
▁Joan	-13787
▁Kabi	-13788
▁Kalẹ	-13789
▁Kant	-13790
▁Kath	-13791
▁Kent	-13792
▁Kisu	-13793
▁Kánò	-13794
▁Kémí	-13795
▁Kòkó	-13796
▁Kútì	-13797
▁Kẹjọ	-13798
▁Laur	-13799
▁Leon	-13800
▁Lies	-13801
▁Line	-13802
▁Loni	-13803
▁Luba	-13804
▁Luku	-13805
▁Lyce	-13806
▁Lápá	-13807
▁Mach	-13808
▁Mail	-13809
▁Maka	-13810
▁Make	-13811
▁Makẹ	-13812
▁Mall	-13813
▁Mani	-13814
▁Mass	-13815
▁Mati	-13816
▁Miró	-13817
▁Muja	-13818
▁Muni	-13819
▁Málì	-13820
▁Naij	-13821
▁Need	-13822
▁Nibi	-13823
▁Nick	-13824
▁Nilo	-13825
▁Noam	-13826
▁Nuhu	-13827
▁Nyan	-13828
▁Nyra	-13829
▁Ogbó	-13830
▁Ojọ́	-13831
▁Okay	-13832
▁Okùn	-13833
▁Ondó	-13834
▁Osei	-13835
▁Oyún	-13836
▁Ozok	-13837
▁Pace	-13838
▁Pash	-13839
▁Peck	-13840
▁Peru	-13841
▁Perú	-13842
▁Pron	-13843
▁Prín	-13844
▁Push	-13845
▁Pòpò	-13846
▁Raba	-13847
▁Race	-13848
▁Rand	-13849
▁Reli	-13850
▁Ring	-13851
▁Scho	-13852
▁Scor	-13853
▁Soky	-13854
▁Some	-13855
▁Star	-13856
▁Succ	-13857
▁Sùwé	-13858
▁TEDx	-13859
▁Tabi	-13860
▁Teju	-13861
▁Temi	-13862
▁Tems	-13863
▁That	-13864
▁Thin	-13865
▁Tope	-13866
▁Tàrá	-13867
▁Tápà	-13868
▁Ulti	-13869
▁Wife	-13870
▁Work	-13871
▁Wura	-13872
▁Yàrá	-13873
▁Zing	-13874
▁aarẹ	-13875
▁adẹ́	-13876
▁afún	-13877
▁afẹ̀	-13878
▁afẹ́	-13879
▁agbà	-13880
▁agùn	-13881
▁akan	-13882
▁akin	-13883
▁alar	-13884
▁asta	-13885
▁asun	-13886
▁ayọ́	-13887
▁aṣeé	-13888
▁bara	-13889
▁bura	-13890
▁bálá	-13891
▁bíbá	-13892
▁bẹ́ẹ	-13893
▁card	-13894
▁chan	-13895
▁city	-13896
▁conf	-13897
▁crin	-13898
▁dada	-13899
▁dena	-13900
▁dire	-13901
▁drug	-13902
▁dànù	-13903
▁dáfá	-13904
▁dèrò	-13905
▁dìjọ	-13906
▁dìmú	-13907
▁dída	-13908
▁dídà	-13909
▁dídì	-13910
▁elee	-13911
▁enzy	-13912
▁e̟rú	-13913
▁farm	-13914
▁fife	-13915
▁fori	-13916
▁fran	-13917
▁gaju	-13918
▁gbun	-13919
▁giri	-13920
▁gran	-13921
▁gìtá	-13922
▁horo	-13923
▁hùwà	-13924
▁ibon	-13925
▁igbà	-13926
▁ilée	-13927
▁infe	-13928
▁into	-13929
▁ipọn	-13930
▁isun	-13931
▁itún	-13932
▁iyan	-13933
▁iyán	-13934
▁jojo	-13935
▁joko	-13936
▁jádò	-13937
▁jáko	-13938
▁jèrè	-13939
▁jíjó	-13940
▁jùlo	-13941
▁jẹri	-13942
▁jọjú	-13943
▁jọjọ	-13944
▁jọra	-13945
▁kalè	-13946
▁kede	-13947
▁keko	-13948
▁kete	-13949
▁kika	-13950
▁know	-13951
▁koni	-13952
▁kori	-13953
▁kuku	-13954
▁kuna	-13955
▁kárb	-13956
▁kíki	-13957
▁kíko	-13958
▁kòní	-13959
▁kòsí	-13960
▁kòtò	-13961
▁kùru	-13962
▁kúró	-13963
▁kẹwa	-13964
▁kẹwá	-13965
▁kẹ̣́	-13966
▁kọlu	-13967
▁lead	-13968
▁lenu	-13969
▁leta	-13970
▁leti	-13971
▁life	-13972
▁lilu	-13973
▁lopo	-13974
▁lorí	-13975
▁lábẹ	-13976
▁látí	-13977
▁lépa	-13978
▁líle	-13979
▁lítí	-13980
▁lósì	-13981
▁main	-13982
▁mali	-13983
▁most	-13984
▁muko	-13985
▁mímọ	-13986
▁ndin	-13987
▁nifẹ	-13988
▁nita	-13989
▁noir	-13990
▁níkẹ	-13991
▁nílù	-13992
▁ogùn	-13993
▁oníà	-13994
▁oran	-13995
▁over	-13996
▁pamo	-13997
▁pase	-13998
▁pati	-13999
▁pipẹ	-14000
▁play	-14001
▁post	-14002
▁pàjá	-14003
▁pójú	-14004
▁rege	-14005
▁riru	-14006
▁rírà	-14007
▁sare	-14008
▁seku	-14009
▁sese	-14010
▁soci	-14011
▁sode	-14012
▁sodo	-14013
▁soju	-14014
▁soki	-14015
▁solo	-14016
▁sàmì	-14017
▁sába	-14018
▁sèdá	-14019
▁sísè	-14020
▁teno	-14021
▁tete	-14022
▁tilè	-14023
▁tiṣu	-14024
▁tori	-14025
▁tàpá	-14026
▁tábí	-14027
▁tèlé	-14028
▁tìrẹ	-14029
▁tìtì	-14030
▁túmò	-14031
▁tẹní	-14032
▁tẹrú	-14033
▁tọju	-14034
▁tọrọ	-14035
▁unda	-14036
▁unfe	-14037
▁unko	-14038
▁unlo	-14039
▁unso	-14040
▁wálé	-14041
▁wéré	-14042
▁wíwá	-14043
▁wíwọ	-14044
▁wọnú	-14045
▁yala	-14046
▁year	-14047
▁yiri	-14048
▁yára	-14049
▁yókù	-14050
▁Àrẹ̀	-14051
▁Ántí	-14052
▁Ègbá	-14053
▁Ìbẹ̀	-14054
▁Ìjọ́	-14055
▁Ìmọ́	-14056
▁Ìpẹ̀	-14057
▁Ìran	-14058
▁Ìrun	-14059
▁Ìsán	-14060
▁Ògúǹ	-14061
▁Òkun	-14062
▁Òkèè	-14063
▁àdán	-14064
▁àfin	-14065
▁àgbo	-14066
▁àgbè	-14067
▁àgbó	-14068
▁àgọ́	-14069
▁àrin	-14070
▁àyẹ̀	-14071
▁ààtò	-14072
▁àánú	-14073
▁àìkú	-14074
▁àìṣe	-14075
▁ákọ̀	-14076
▁ètọ́	-14077
▁ìbon	-14078
▁ìdáà	-14079
▁ìdẹ̀	-14080
▁ìfọn	-14081
▁ìgbó	-14082
▁ìhún	-14083
▁ìjẹ́	-14084
▁ìpẹ́	-14085
▁ògun	-14086
▁ònkọ	-14087
▁òrìń	-14088
▁òrọ̀	-14089
▁òtún	-14090
▁òyìn	-14091
▁òṣẹ̀	-14092
▁úndá	-14093
▁ńṣàn	-14094
▁Ṣólà	-14095
▁Ṣóná	-14096
▁Ṣọlá	-14097
▁ṣajọ	-14098
▁ṣara	-14099
▁ṣiṣé	-14100
▁ṣòfò	-14101
▁ṣórí	-14102
▁ṣọlá	-14103
▁Ẹkún	-14104
▁ẹ̀rú	-14105
▁ẹ̀ya	-14106
▁Ọ̀bá	-14107
▁Ọ̀pá	-14108
▁Ọ̀rá	-14109
▁ọdọ́	-14110
▁ọgbẹ	-14111
▁ọkọ́	-14112
▁ọmọ́	-14113
▁ọ̀já	-14114
▁ọ̀ná	-14115
▁ọ̀tẹ	-14116
▁ọ̀ọ́	-14117
:03:11	-14118
Africa	-14119
Brazil	-14120
Donald	-14121
Ijesha	-14122
United	-14123
Weekly	-14124
aching	-14125
agbaye	-14126
agutan	-14127
akọọlẹ	-14128
alists	-14129
aranty	-14130
armacy	-14131
aworan	-14132
bijùlọ	-14133
bàtálá	-14134
bìnrìn	-14135
bìnrín	-14136
bẹ̀mẹ́	-14137
bẹ́rẹ́	-14138
ckmate	-14139
coccal	-14140
coloni	-14141
crinus	-14142
ctions	-14143
culate	-14144
dasilẹ	-14145
dicine	-14146
dumare	-14147
durole	-14148
dìroko	-14149
dínlẹ́	-14150
dọọdun	-14151
elloun	-14152
esting	-14153
fasiki	-14154
fasity	-14155
gangan	-14156
gascar	-14157
gbogun	-14158
gbooro	-14159
gbufọ̀	-14160
gbàgbé	-14161
gbádùn	-14162
gbèhìn	-14163
gbòòrò	-14164
gbónta	-14165
gerian	-14166
gether	-14167
gọ́rin	-14168
ighton	-14169
ijinlẹ	-14170
insula	-14171
istoso	-14172
jeriya	-14173
kaluku	-14174
kerere	-14175
kiyèsí	-14176
kookan	-14177
kuluku	-14178
kékeré	-14179
kòròdú	-14180
kùnrẹ́	-14181
kùnyùn	-14182
kúlùkù	-14183
kúnrin	-14184
kúùgbà	-14185
kẹ̀kẹ̀	-14186
kẹ́lẹ́	-14187
kẹ́owó	-14188
levels	-14189
libaly	-14190
lodeon	-14191
logies	-14192
loworo	-14193
lájolú	-14194
lórúkọ	-14195
lẹjẹpe	-14196
lọgbọn	-14197
lọ́gọ̀	-14198
mation	-14199
mbọ́lá	-14200
mental	-14201
milton	-14202
mittee	-14203
motion	-14204
mìíràn	-14205
místrì	-14206
múléró	-14207
mọ̀kan	-14208
mọ́ndì	-14209
ntiróò	-14210
nítòsí	-14211
nẹ́gàl	-14212
olorun	-14213
oobsie	-14214
pejuwe	-14215
perate	-14216
reneur	-14217
resile	-14218
rinrin	-14219
ristol	-14220
ràngún	-14221
ránṣẹ́	-14222
rẹ́rẹ́	-14223
sembly	-14224
sítélì	-14225
sẹ̀lẹ̀	-14226
sọ̀tàn	-14227
tagonu	-14228
tation	-14229
tative	-14230
thioni	-14231
thoven	-14232
tọ̀ọ́a	-14233
wolori	-14234
wọnsẹ̀	-14235
yamoto	-14236
yemeji	-14237
yindin	-14238
yirapo	-14239
yomozi	-14240
yìíkẹ́	-14241
yíwọlá	-14242
yẹ̀rẹ̀	-14243
zabeth	-14244
Èjìgbò	-14245
ìjọsìn	-14246
ìkanra	-14247
ìsàlẹ̀	-14248
ńtáàsì	-14249
ṣàkóso	-14250
ṣàmúlò	-14251
ẹdógún	-14252
ẹ̀ẹ́sí	-14253
ọmọìlú	-14254
▁(1986	-14255
▁(1996	-14256
▁(2005	-14257
▁(2006	-14258
▁(2011	-14259
▁1,500	-14260
▁1925.	-14261
▁1950,	-14262
▁1966,	-14263
▁1967,	-14264
▁1969)	-14265
▁1969,	-14266
▁1971.	-14267
▁1974,	-14268
▁1974.	-14269
▁1975.	-14270
▁1977)	-14271
▁1977,	-14272
▁1978,	-14273
▁1980,	-14274
▁1982,	-14275
▁1985,	-14276
▁1990)	-14277
▁1990,	-14278
▁1992)	-14279
▁1994,	-14280
▁1999.	-14281
▁2010)	-14282
▁Abasi	-14283
▁Actor	-14284
▁Adarí	-14285
▁Adven	-14286
▁Adver	-14287
▁Adéyẹ	-14288
▁Agbej	-14289
▁Agóró	-14290
▁Agẹmọ	-14291
▁Ahrar	-14292
▁Aigbe	-14293
▁Aisha	-14294
▁Ajayi	-14295
▁Akátá	-14296
▁Alain	-14297
▁Aleks	-14298
▁Alimi	-14299
▁Amaka	-14300
▁Amata	-14301
▁Aneke	-14302
▁Apapo	-14303
▁Ascen	-14304
▁Asher	-14305
▁Assih	-14306
▁Audio	-14307
▁Ayida	-14308
▁Banjo	-14309
▁Baàjí	-14310
▁Beach	-14311
▁Beast	-14312
▁Berry	-14313
▁Blame	-14314
▁Bless	-14315
▁Blood	-14316
▁Blues	-14317
▁Board	-14318
▁Books	-14319
▁Boyle	-14320
▁Break	-14321
▁Brook	-14322
▁Calmy	-14323
▁Chair	-14324
▁Chart	-14325
▁Chika	-14326
▁Chile	-14327
▁Chron	-14328
▁Clerk	-14329
▁Color	-14330
▁Count	-14331
▁Cress	-14332
▁Dakar	-14333
▁Delhi	-14334
▁Diary	-14335
▁Dikeh	-14336
▁Dirie	-14337
▁Djibo	-14338
▁Dream	-14339
▁Dábọ̀	-14340
▁Ebuka	-14341
▁Emzor	-14342
▁Esoro	-14343
▁Evans	-14344
▁Fares	-14345
▁Fight	-14346
▁Films	-14347
▁Fleur	-14348
▁Force	-14349
▁Fàájì	-14350
▁Fíìmú	-14351
▁Fúndí	-14352
▁Games	-14353
▁Gemma	-14354
▁Ghánà	-14355
▁Glori	-14356
▁Gordy	-14357
▁Greek	-14358
▁Guang	-14359
▁Gèésì	-14360
▁Hanta	-14361
▁Heart	-14362
▁Helen	-14363
▁Henri	-14364
▁Hotel	-14365
▁Idajo	-14366
▁Ilẹ̀g	-14367
▁Imọlẹ	-14368
▁Ipari	-14369
▁Irish	-14370
▁Isaac	-14371
▁Itunu	-14372
▁Ivory	-14373
▁Iyamu	-14374
▁Iṣowo	-14375
▁Janet	-14376
▁Jewel	-14377
▁Jofia	-14378
▁Jímọ̀	-14379
▁Kakan	-14380
▁Kamba	-14381
▁Kanem	-14382
▁Karen	-14383
▁Kesan	-14384
▁Knock	-14385
▁Kongo	-14386
▁Kosta	-14387
▁Kwali	-14388
▁Kàrún	-14389
▁Kúnlé	-14390
▁Kẹ̀wá	-14391
▁Lanka	-14392
▁Laura	-14393
▁Lawal	-14394
▁LeRoi	-14395
▁Leven	-14396
▁Locke	-14397
▁Lopez	-14398
▁Lover	-14399
▁Lúmọ̀	-14400
▁Lẹyin	-14401
▁Lẹ́tà	-14402
▁Lọ́nd	-14403
▁Madam	-14404
▁Major	-14405
▁Maria	-14406
▁Mbeki	-14407
▁Medal	-14408
▁Mills	-14409
▁Misau	-14410
▁Monte	-14411
▁Moses	-14412
▁Mount	-14413
▁Musso	-14414
▁Muṣin	-14415
▁Mímọ́	-14416
▁Mẹ́ta	-14417
▁Nandi	-14418
▁Ndani	-14419
▁Nicke	-14420
▁Nnaji	-14421
▁Nwosu	-14422
▁Níbẹ̀	-14423
▁Oasis	-14424
▁Obser	-14425
▁Ogiem	-14426
▁Olsen	-14427
▁Oluko	-14428
▁Oluwa	-14429
▁Olówu	-14430
▁Omoni	-14431
▁Oriṣi	-14432
▁Osere	-14433
▁Oòduà	-14434
▁Patti	-14435
▁Peace	-14436
▁Pedro	-14437
▁Petro	-14438
▁Photo	-14439
▁Place	-14440
▁Pombo	-14441
▁Premi	-14442
▁Price	-14443
▁Psych	-14444
▁Pínní	-14445
▁Ramat	-14446
▁Roger	-14447
▁Rufus	-14448
▁Salam	-14449
▁Salma	-14450
▁Scott	-14451
▁Segun	-14452
▁Sheba	-14453
▁Simon	-14454
▁Solar	-14455
▁Spéìn	-14456
▁Stony	-14457
▁Stras	-14458
▁Strep	-14459
▁Suman	-14460
▁Sunny	-14461
▁Sweet	-14462
▁Synop	-14463
▁Syria	-14464
▁Sáájú	-14465
▁Sáúdí	-14466
▁Taiye	-14467
▁Tambo	-14468
▁Terri	-14469
▁Testa	-14470
▁Thabo	-14471
▁Three	-14472
▁Tiger	-14473
▁Tonto	-14474
▁Triki	-14475
▁Tríní	-14476
▁Tunis	-14477
▁Tóyìn	-14478
▁Uduma	-14479
▁Vangu	-14480
▁Vasco	-14481
▁Verde	-14482
▁Voice	-14483
▁Warri	-14484
▁Wendy	-14485
▁Wuhan	-14486
▁Yusuf	-14487
▁Yàgbà	-14488
▁Zanzi	-14489
▁Zineb	-14490
▁abikẹ	-14491
▁abori	-14492
▁abuda	-14493
▁abáni	-14494
▁adako	-14495
▁adalu	-14496
▁adaye	-14497
▁adije	-14498
▁adipo	-14499
▁adìyẹ	-14500
▁afipa	-14501
▁agbọn	-14502
▁ahọ́n	-14503
▁ajalè	-14504
▁ajapo	-14505
▁ajile	-14506
▁akérò	-14507
▁akọle	-14508
▁akọwe	-14509
▁alade	-14510
▁alako	-14511
▁alpha	-14512
▁alábù	-14513
▁aládé	-14514
▁amoye	-14515
▁amára	-14516
▁amóùn	-14517
▁arewa	-14518
▁ariwo	-14519
▁arẹwà	-14520
▁asise	-14521
▁asopọ	-14522
▁asàmì	-14523
▁atẹle	-14524
▁awoṣe	-14525
▁ayipo	-14526
▁ayára	-14527
▁aṣiṣe	-14528
▁balẹ̀	-14529
▁baálé	-14530
▁bombu	-14531
▁broad	-14532
▁bíbọ̀	-14533
▁bófin	-14534
▁bẹ̀rè	-14535
▁bọọlu	-14536
▁chain	-14537
▁dilẹ̀	-14538
▁dolóò	-14539
▁drama	-14540
▁dáada	-14541
▁dájọ́	-14542
▁dámọ̀	-14543
▁dárin	-14544
▁dúkìá	-14545
▁eerin	-14546
▁eleda	-14547
▁elede	-14548
▁eleyo	-14549
▁elédù	-14550
▁ewéko	-14551
▁faran	-14552
▁fiṣẹ́	-14553
▁funni	-14554
▁fáwọn	-14555
▁fòfin	-14556
▁fẹsẹ̀	-14557
▁fẹ́ẹ̀	-14558
▁fọ́tò	-14559
▁gaara	-14560
▁gaari	-14561
▁gaasi	-14562
▁gbàwé	-14563
▁gbèjà	-14564
▁gbèsè	-14565
▁gbódò	-14566
▁geesi	-14567
▁gùnkè	-14568
▁hurun	-14569
▁ibimo	-14570
▁idamo	-14571
▁idapọ	-14572
▁ifasi	-14573
▁ifipa	-14574
▁ifọwọ	-14575
▁ikefa	-14576
▁ikẹkọ	-14577
▁ileru	-14578
▁ilese	-14579
▁imole	-14580
▁infar	-14581
▁inter	-14582
▁ipile	-14583
▁iposi	-14584
▁irawo	-14585
▁iresi	-14586
▁ironu	-14587
▁irúfé	-14588
▁isale	-14589
▁isalẹ	-14590
▁iseku	-14591
▁isise	-14592
▁isodi	-14593
▁isopọ	-14594
▁isujo	-14595
▁iwuwa	-14596
▁iṣaṣe	-14597
▁jinna	-14598
▁jogún	-14599
▁jábọ̀	-14600
▁jálẹ̀	-14601
▁jẹ́pé	-14602
▁kásẹ̀	-14603
▁káàkà	-14604
▁kọkan	-14605
▁laini	-14606
▁lulẹ̀	-14607
▁lábé̟	-14608
▁ládàá	-14609
▁lálẹ́	-14610
▁láàrí	-14611
▁láìní	-14612
▁lélẹ̀	-14613
▁lóòrè	-14614
▁lọwọ́	-14615
▁major	-14616
▁milli	-14617
▁mérin	-14618
▁míran	-14619
▁móhùn	-14620
▁mẹsan	-14621
▁mẹ́wá	-14622
▁mọ̀ọ́	-14623
▁mọ́lé	-14624
▁naira	-14625
▁ngbọn	-14626
▁niwon	-14627
▁nífẹ́	-14628
▁nígvà	-14629
▁nílùú	-14630
▁níṣẹ́	-14631
▁núklé	-14632
▁ogoji	-14633
▁ojise	-14634
▁olopo	-14635
▁olusa	-14636
▁oluṣe	-14637
▁olùbá	-14638
▁olùsọ	-14639
▁olúwa	-14640
▁onibo	-14641
▁oniho	-14642
▁oniyo	-14643
▁onítè	-14644
▁oogùn	-14645
▁oriki	-14646
▁oruka	-14647
▁orílẹ	-14648
▁otito	-14649
▁paarọ	-14650
▁point	-14651
▁pàṣán	-14652
▁pọ̀jù	-14653
▁pọ̀si	-14654
▁radio	-14655
▁rocks	-14656
▁ránṣọ	-14657
▁rérin	-14658
▁ríran	-14659
▁rírẹ́	-14660
▁seese	-14661
▁silẹ̀	-14662
▁sinmi	-14663
▁sisun	-14664
▁sáyẹ́	-14665
▁sẹlẹ̀	-14666
▁tàgbà	-14667
▁tìgbà	-14668
▁títàn	-14669
▁títẹ̀	-14670
▁tọwọ́	-14671
▁units	-14672
▁virus	-14673
▁wiwon	-14674
▁world	-14675
▁wálẹ̀	-14676
▁wíwọ̀	-14677
▁wòlíì	-14678
▁yòówù	-14679
▁yẹ́lò	-14680
▁Àbùdá	-14681
▁Àkókò	-14682
▁Àwórì	-14683
▁Àṣìṣe	-14684
▁Ìbìní	-14685
▁Ìjerò	-14686
▁Ìjélè	-14687
▁Ìkórè	-14688
▁Ìkẹjà	-14689
▁Ìlédè	-14690
▁Ìpèsè	-14691
▁Ìrètí	-14692
▁Ìtàwé	-14693
▁Ìṣirò	-14694
▁Ògèdè	-14695
▁Ògògó	-14696
▁Òòrùn	-14697
▁Òṣèlú	-14698
▁àdàkọ	-14699
▁àdàlú	-14700
▁àdákọ	-14701
▁àlébù	-14702
▁àléfà	-14703
▁àpapọ	-14704
▁àpérò	-14705
▁àríwí	-14706
▁àwàlù	-14707
▁àwòrò	-14708
▁ààrun	-14709
▁átíkù	-14710
▁ègbẹ́	-14711
▁èjìká	-14712
▁ìdara	-14713
▁ìdáná	-14714
▁ìdíye	-14715
▁ìfilé	-14716
▁ìfojú	-14717
▁ìlapa	-14718
▁ìmúlò	-14719
▁ìsòrí	-14720
▁ìtọjú	-14721
▁ìwọlé	-14722
▁ìyídà	-14723
▁ìṣòwò	-14724
▁òdodo	-14725
▁òrìsà	-14726
▁òòjọ́	-14727
▁òótọ́	-14728
▁òṣèrè	-14729
▁ṣeéṣe	-14730
▁ṣisẹ́	-14731
▁ṣẹ́ku	-14732
▁Ẹ̀tọ́	-14733
▁ẹgbàá	-14734
▁ẹ̀fọ́	-14735
▁ẹ̀sin	-14736
▁ẹ̀yin	-14737
▁Ọlọpa	-14738
▁Ọmọba	-14739
▁Ọ̀dọ̀	-14740
▁Ọ̀rán	-14741
▁ọ̀hún	-14742
▁ọ̀kẹ́	-14743
▁ọ̀rìn	-14744
▁ọ̀tẹ́	-14745
▁ọ̀ṣọ́	-14746
Guessan	-14747
Saharan	-14748
abinibi	-14749
adanida	-14750
atọ́kùn	-14751
bacteri	-14752
bagbepo	-14753
borough	-14754
ception	-14755
chestra	-14756
countan	-14757
cycline	-14758
dinlọgọ	-14759
duridae	-14760
dínlógò	-14761
ereburu	-14762
farahan	-14763
fferent	-14764
fojusun	-14765
formati	-14766
fíṣọ̀nù	-14767
fúnmilá	-14768
gagbaga	-14769
gbaradì	-14770
gbàgbọ́	-14771
gbọọgba	-14772
genthau	-14773
ibalopo	-14774
issance	-14775
kaitisi	-14776
kiatisi	-14777
kiobron	-14778
kiriaye	-14779
koerure	-14780
kójọpọ̀	-14781
laadoje	-14782
lovenia	-14783
lutifon	-14784
mentary	-14785
milókun	-14786
neumoni	-14787
polongo	-14788
protein	-14789
ránmúpè	-14790
sayensi	-14791
sistant	-14792
spiring	-14793
stitute	-14794
tasiomu	-14795
thedral	-14796
tingale	-14797
tẹ̀jáde	-14798
tọwọ́dá	-14799
usalemu	-14800
viridae	-14801
walaaye	-14802
àpèjúwe	-14803
àpọ́nlé	-14804
ìjìnlẹ̀	-14805
ẹnisọrọ	-14806
ọ́gbọ̀n	-14807
ọ́lọ́jì	-14808
▁Abọ́ba	-14809
▁Adunni	-14810
▁Ajẹ̀bú	-14811
▁Alohùn	-14812
▁Aláwọ̀	-14813
▁Amofin	-14814
▁Amúṣàn	-14815
▁Andrea	-14816
▁Anello	-14817
▁Artist	-14818
▁Arábíà	-14819
▁Aráàlú	-14820
▁Asokan	-14821
▁Astria	-14822
▁Aworan	-14823
▁Aṣáájú	-14824
▁Bandia	-14825
▁Bayero	-14826
▁Beacon	-14827
▁Biffot	-14828
▁Boston	-14829
▁Calder	-14830
▁Center	-14831
▁Chukwu	-14832
▁Cinema	-14833
▁Clinic	-14834
▁Conser	-14835
▁Cooper	-14836
▁Cruise	-14837
▁Desert	-14838
▁Dokita	-14839
▁Dokubo	-14840
▁Dynami	-14841
▁Dókítà	-14842
▁ECOWAS	-14843
▁Egipti	-14844
▁Elliot	-14845
▁Enough	-14846
▁Estate	-14847
▁Falana	-14848
▁Farida	-14849
▁Fathia	-14850
▁Fatima	-14851
▁Fields	-14852
▁Forest	-14853
▁Fráǹsì	-14854
▁Fulani	-14855
▁Futuna	-14856
▁Fúnkẹ́	-14857
▁Godwin	-14858
▁Greens	-14859
▁Harlem	-14860
▁Hubble	-14861
▁Ilẹ́ṣà	-14862
▁Indian	-14863
▁Iroyin	-14864
▁Isokan	-14865
▁Isoken	-14866
▁Italia	-14867
▁Iyamah	-14868
▁Iyanda	-14869
▁Jenifa	-14870
▁Johanu	-14871
▁Joigny	-14872
▁Kaàrún	-14873
▁Kátólí	-14874
▁Kúrùpù	-14875
▁Laarin	-14876
▁Labour	-14877
▁Lateef	-14878
▁League	-14879
▁Lilian	-14880
▁Lásárù	-14881
▁Lọ́rùn	-14882
▁Malayo	-14883
▁Manaka	-14884
▁Medium	-14885
▁Middle	-14886
▁Modern	-14887
▁Montes	-14888
▁Morèmi	-14889
▁Mosaku	-14890
▁Moscow	-14891
▁Movies	-14892
▁Màrínò	-14893
▁Nnenna	-14894
▁Norway	-14895
▁Ogbeni	-14896
▁Okafor	-14897
▁Oliver	-14898
▁Ológbò	-14899
▁Olórun	-14900
▁Omidan	-14901
▁Onibon	-14902
▁Onkowe	-14903
▁Onwenu	-14904
▁Onímọ̀	-14905
▁Orosen	-14906
▁Parton	-14907
▁Pataki	-14908
▁Pender	-14909
▁Pierre	-14910
▁Planet	-14911
▁Plexus	-14912
▁Poland	-14913
▁Public	-14914
▁Rahama	-14915
▁Rainer	-14916
▁Rayzed	-14917
▁Respon	-14918
▁Rhythm	-14919
▁Sainte	-14920
▁Sanusi	-14921
▁Serena	-14922
▁Shaikh	-14923
▁Shekwo	-14924
▁Sinimá	-14925
▁Sister	-14926
▁Soobya	-14927
▁Soweto	-14928
▁Stella	-14929
▁Sugbon	-14930
▁Suites	-14931
▁Summer	-14932
▁Sweden	-14933
▁Swidin	-14934
▁Swítsà	-14935
▁Síwájú	-14936
▁Sùgbón	-14937
▁Teresa	-14938
▁Tijani	-14939
▁Tinúbú	-14940
▁Torque	-14941
▁Traoré	-14942
▁Tucker	-14943
▁UNESCO	-14944
▁Udokwu	-14945
▁Wallis	-14946
▁Walter	-14947
▁Wright	-14948
▁Wúndíá	-14949
▁Yakubu	-14950
▁abẹ́lé	-14951
▁adágún	-14952
▁agbolé	-14953
▁agbọ̀n	-14954
▁ajagun	-14955
▁akoere	-14956
▁akoonu	-14957
▁akọ́ni	-14958
▁alaile	-14959
▁alákọ̀	-14960
▁alákọ́	-14961
▁alárùn	-14962
▁aláàbò	-14963
▁amioro	-14964
▁amúlùú	-14965
▁anarch	-14966
▁apeere	-14967
▁artemi	-14968
▁aráàlú	-14969
▁asòfin	-14970
▁atẹgun	-14971
▁ayanfẹ	-14972
▁beauty	-14973
▁buburu	-14974
▁burúkú	-14975
▁bẹ́rẹ̀	-14976
▁cinema	-14977
▁daadaa	-14978
▁dasilẹ	-14979
▁distri	-14980
▁dojukọ	-14981
▁double	-14982
▁dídara	-14983
▁dídára	-14984
▁dó̟gba	-14985
▁elegbe	-14986
▁eleyii	-14987
▁enìkan	-14988
▁ewébẹ̀	-14989
▁fagilé	-14990
▁faramo	-14991
▁farapa	-14992
▁fifowo	-14993
▁fásìtì	-14994
▁fèrèsé	-14995
▁fúngbà	-14996
▁fẹ̀sùn	-14997
▁fẹ́lẹ́	-14998
▁fẹ́ran	-14999
▁fọ́fọ́	-15000
▁gajulo	-15001
▁gboogi	-15002
▁gbégbá	-15003
▁gbígbẹ	-15004
▁gé̟gé̟	-15005
▁gómìnà	-15006
▁gẹ̀gẹ́	-15007
▁ibìkan	-15008
▁ibùsọ̀	-15009
▁igbana	-15010
▁igbati	-15011
▁igbẹkẹ	-15012
▁ijinle	-15013
▁imoran	-15014
▁iparun	-15015
▁iranṣẹ	-15016
▁irinna	-15017
▁iyẹfun	-15018
▁iṣaaju	-15019
▁jamaní	-15020
▁jegudu	-15021
▁jáfáfá	-15022
▁jìbìtì	-15023
▁jẹrisi	-15024
▁jọ̀kan	-15025
▁kalori	-15026
▁kemika	-15027
▁kiakia	-15028
▁kirisi	-15029
▁koleji	-15030
▁korona	-15031
▁kọ́bọ̀	-15032
▁lafiwe	-15033
▁latari	-15034
▁leekan	-15035
▁logbon	-15036
▁lápapò	-15037
▁láìpẹ́	-15038
▁lójijì	-15039
▁lórílè	-15040
▁lẹsẹsẹ	-15041
▁lọ́tọ̀	-15042
▁master	-15043
▁molebi	-15044
▁months	-15045
▁májèlé	-15046
▁mùtúmù	-15047
▁mẹ́riǹ	-15048
▁niwaju	-15049
▁nítòsí	-15050
▁odaran	-15051
▁odeoni	-15052
▁ojuojo	-15053
▁ojúewé	-15054
▁ojútùú	-15055
▁olónìí	-15056
▁olópàá	-15057
▁olósẹ̀	-15058
▁olùsìn	-15059
▁omidan	-15060
▁omoilu	-15061
▁onitan	-15062
▁onílẹ̀	-15063
▁onímọ́	-15064
▁onítẹ̀	-15065
▁orilẹ̀	-15066
▁pasita	-15067
▁péréte	-15068
▁pípèsè	-15069
▁pólímà	-15070
▁pẹlẹbẹ	-15071
▁sẹ̀yìn	-15072
▁tiketi	-15073
▁tumosi	-15074
▁tálákà	-15075
▁tẹlifí	-15076
▁tẹ̀lẹ́	-15077
▁tọkasi	-15078
▁unsaba	-15079
▁wàhálà	-15080
▁wítìrí	-15081
▁wẹ́wẹ́	-15082
▁wọnyii	-15083
▁wọ̀fún	-15084
▁yipada	-15085
▁Àlùfáà	-15086
▁Àpamọ̀	-15087
▁Àtúnṣe	-15088
▁Àyẹ̀wò	-15089
▁Ìdàgbà	-15090
▁Ìgbòdì	-15091
▁Ìtọ́jú	-15092
▁Ìyàtọ̀	-15093
▁Ìṣọ̀lá	-15094
▁Ògúndì	-15095
▁Òṣogbo	-15096
▁àbẹ̀wò	-15097
▁àdàpọ̀	-15098
▁àgbàlá	-15099
▁àgbàrá	-15100
▁àgbákò	-15101
▁àkóónú	-15102
▁àkọkọ́	-15103
▁àpeere	-15104
▁àwòràn	-15105
▁àádóje	-15106
▁àìyedè	-15107
▁èniyàn	-15108
▁ìfẹsẹ̀	-15109
▁ìkáwọ́	-15110
▁ìmọ̀ọ́	-15111
▁ìpilẹ̀	-15112
▁ìpínyà	-15113
▁ìránṣọ	-15114
▁ìtàkùn	-15115
▁ìwásẹ̀	-15116
▁ìṣẹ̀mí	-15117
▁ògágun	-15118
▁òjíṣẹ́	-15119
▁Ṣẹ́gun	-15120
▁ṣakoso	-15121
▁ṣàkóbá	-15122
▁ẹyinjú	-15123
▁ẹ̀pọ́n	-15124
▁ẹ́gbẹ́	-15125
▁ọlọ́dẹ	-15126
▁ọnafun	-15127
▁ọ̀làjú	-15128
aralóore	-15129
cariasis	-15130
conomics	-15131
dioksidi	-15132
dílógójì	-15133
díyelófò	-15134
dọ́rẹ̀ẹ́	-15135
finition	-15136
f́iṣọ̀nù	-15137
gbùngbùn	-15138
graduate	-15139
ishmania	-15140
kanjuola	-15141
kọ́ọ́lẹ̀	-15142
lization	-15143
lùkùránì	-15144
lọ̀gbọ̀n	-15145
misaraka	-15146
parative	-15147
position	-15148
ronesian	-15149
ríṣiríṣi	-15150
tilẹjẹpe	-15151
umentary	-15152
volution	-15153
wanilenu	-15154
wosiwuwo	-15155
Ìgbómìnà	-15156
̀̀̀̀̀̀̀̀	-15157
ṣípààrọ̀	-15158
ẹgbẹ̀rún	-15159
ẹ́rẹ́fẹ́	-15160
ọnigbùwà	-15161
ọ́dúnrún	-15162
▁Abidemi	-15163
▁Adetoun	-15164
▁Adeyeye	-15165
▁Agbógun	-15166
▁Aguebor	-15167
▁Ajibola	-15168
▁Akademi	-15169
▁Akinola	-15170
▁Alabama	-15171
▁Alberta	-15172
▁Alexand	-15173
▁Algiers	-15174
▁Amọ̀fin	-15175
▁Anthony	-15176
▁Aníwúrà	-15177
▁Aparapo	-15178
▁Arbitra	-15179
▁Asọ̀rọ̀	-15180
▁Austríà	-15181
▁Balkani	-15182
▁Bernard	-15183
▁Bilongo	-15184
▁Bolívar	-15185
▁Bonoman	-15186
▁Bristol	-15187
▁Bàrbúdà	-15188
▁Bándélé	-15189
▁Bíọ́dún	-15190
▁Bùkọ́lá	-15191
▁Bọ́lájí	-15192
▁Campbel	-15193
▁Century	-15194
▁Chomsky	-15195
▁Concord	-15196
▁Dangote	-15197
▁Darling	-15198
▁Desmond	-15199
▁Digital	-15200
▁Doctors	-15201
▁Eastern	-15202
▁Egúngún	-15203
▁Erekusu	-15204
▁Erongba	-15205
▁Fabunmi	-15206
▁Fanuatu	-15207
▁Freedom	-15208
▁Fálọ̀lá	-15209
▁Gbógùnr	-15210
▁Glasgow	-15211
▁Hadioui	-15212
▁Herbals	-15213
▁Hermann	-15214
▁History	-15215
▁Holding	-15216
▁Hussein	-15217
▁Idurole	-15218
▁Ireland	-15219
▁Israeli	-15220
▁Iwoorun	-15221
▁Iyaafin	-15222
▁Iyipada	-15223
▁Iṣelọpọ	-15224
▁Jessica	-15225
▁Jupiter	-15226
▁Jíbọ́lá	-15227
▁Kadaria	-15228
▁Katsina	-15229
▁Kayembe	-15230
▁Kenneth	-15231
▁Kokanla	-15232
▁Kurdish	-15233
▁Kẹẹ̀sán	-15234
▁Letters	-15235
▁Liberia	-15236
▁Lẹhinna	-15237
▁Mahmood	-15238
▁Massoud	-15239
▁Matters	-15240
▁Maurice	-15241
▁Musashi	-15242
▁Mẹ́síkò	-15243
▁Mọ́gàjí	-15244
▁Natural	-15245
▁Nijiria	-15246
▁Nursing	-15247
▁Nàjíríà	-15248
▁Obinrin	-15249
▁Oduduwa	-15250
▁Ojogbon	-15251
▁Olaniyi	-15252
▁Olobiri	-15253
▁Olokiki	-15254
▁Omawumi	-15255
▁Opolopo	-15256
▁Osborne	-15257
▁Ousmane	-15258
▁Ozokwor	-15259
▁Pokhrel	-15260
▁Pretori	-15261
▁Pópóọlá	-15262
▁Ransome	-15263
▁Raymond	-15264
▁Reading	-15265
▁Reyneke	-15266
▁Scandal	-15267
▁Semitic	-15268
▁Sissoko	-15269
▁Sistemu	-15270
▁Soyinka	-15271
▁Special	-15272
▁Stanley	-15273
▁Studies	-15274
▁Tejuoso	-15275
▁Theresa	-15276
▁Wedding	-15277
▁Writers	-15278
▁Writing	-15279
▁afijuwe	-15280
▁agboolé	-15281
▁agbógun	-15282
▁aguntan	-15283
▁akojopo	-15284
▁akẹ́kọ́	-15285
▁akọ́ṣẹ́	-15286
▁alapata	-15287
▁alaroko	-15288
▁alawujo	-15289
▁amojuto	-15290
▁asotele	-15291
▁asíwájú	-15292
▁atẹjade	-15293
▁ayodini	-15294
▁ayọkẹlẹ	-15295
▁aṣíwájú	-15296
▁beesini	-15297
▁billion	-15298
▁bẹ́rìlì	-15299
▁corregi	-15300
▁country	-15301
▁crystal	-15302
▁diamita	-15303
▁enikeni	-15304
▁feyinti	-15305
▁fọwọ́sí	-15306
▁gbalejo	-15307
▁gbangan	-15308
▁gbongbo	-15309
▁gbẹ́sẹ̀	-15310
▁gedegbe	-15311
▁gilandi	-15312
▁gráfáìt	-15313
▁ibalopo	-15314
▁ibalopọ	-15315
▁ibujoko	-15316
▁idaduro	-15317
▁idiyele	-15318
▁ifojusi	-15319
▁ifowosi	-15320
▁igbadie	-15321
▁igbadun	-15322
▁igbagbọ	-15323
▁ijabori	-15324
▁isakoso	-15325
▁isejoba	-15326
▁iwokuwo	-15327
▁iyasọtọ	-15328
▁iyebíye	-15329
▁iyẹ̀pẹ̀	-15330
▁karboni	-15331
▁kokanle	-15332
▁komputa	-15333
▁lateyin	-15334
▁làákàyè	-15335
▁látìgbà	-15336
▁merinla	-15337
▁mokanle	-15338
▁májẹ̀mú	-15339
▁mẹ́tàlá	-15340
▁nigbaku	-15341
▁nkankan	-15342
▁ojulowo	-15343
▁oksijin	-15344
▁ololufe	-15345
▁olumulo	-15346
▁olupese	-15347
▁olutọju	-15348
▁olùdíje	-15349
▁olùgbọ́	-15350
▁onibaje	-15351
▁onisiro	-15352
▁onisona	-15353
▁onkọ̀we	-15354
▁onímọ̀n	-15355
▁owonina	-15356
▁owóníná	-15357
▁primary	-15358
▁protein	-15359
▁publish	-15360
▁pápákọ̀	-15361
▁safihan	-15362
▁sodiomu	-15363
▁sẹ́ẹ̀lì	-15364
▁theatre	-15365
▁tọpasẹ̀	-15366
▁Àgbọ́wá	-15367
▁Ántígúà	-15368
▁Ìyáàfin	-15369
▁Òdùduwà	-15370
▁àbáláyé	-15371
▁àdáyébá	-15372
▁àgékúrú	-15373
▁àkíyèsi	-15374
▁àlẹ̀mọ́	-15375
▁àrídájú	-15376
▁àtinúdá	-15377
▁àtúnpín	-15378
▁àìrọ́mọ	-15379
▁èròngbà	-15380
▁èyíkéyí	-15381
▁ìbújáde	-15382
▁ìfarapa	-15383
▁ìgbàgbé	-15384
▁ìgbádùn	-15385
▁ìgbòmìn	-15386
▁ìmọtara	-15387
▁ìpalára	-15388
▁ìpọ́njú	-15389
▁ìrẹ̀lẹ̀	-15390
▁ìsàkóso	-15391
▁Ṣówandé	-15392
▁ṣàtúnṣe	-15393
▁Ọkùnrin	-15394
▁Ọlọ́fìn	-15395
▁Ọlọ́jẹ̀	-15396
▁Ọpọlọpọ	-15397
▁Ọ̀gágun	-15398
▁Ọ̀kànbí	-15399
▁ọlọ̀tẹ̀	-15400
bacterium	-15401
bẹ̀mẹ́kún	-15402
cendental	-15403
chemistry	-15404
ellulitis	-15405
fẹ́tọ̀ọ́a	-15406
gídíjàgan	-15407
hunsafefe	-15408
orisirere	-15409
rangement	-15410
rísítẹ́nì	-15411
thromycin	-15412
▁Abdullah	-15413
▁Aberdeen	-15414
▁Advocate	-15415
▁Adékọ̀yà	-15416
▁Adékọ́lá	-15417
▁Adérẹ̀mí	-15418
▁Afọláyan	-15419
▁Akindoju	-15420
▁Akintobi	-15421
▁Akitiyan	-15422
▁Akíndélé	-15423
▁Akínyẹlé	-15424
▁Alliance	-15425
▁Anthropo	-15426
▁Augustus	-15427
▁Bakannaa	-15428
▁Basemera	-15429
▁Broadway	-15430
▁Brussels	-15431
▁Carolina	-15432
▁Cerebral	-15433
▁Chidinma	-15434
▁Computer	-15435
▁Creative	-15436
▁Crowther	-15437
▁Cyrillic	-15438
▁Deighton	-15439
▁Djibouti	-15440
▁Emmanuel	-15441
▁Engineer	-15442
▁Facebook	-15443
▁Foucault	-15444
▁Gbádébọ̀	-15445
▁Goldberg	-15446
▁Guaranty	-15447
▁Hamilton	-15448
▁Heritage	-15449
▁Ibikunle	-15450
▁Igbeyawo	-15451
▁Institut	-15452
▁Isabella	-15453
▁Johnston	-15454
▁Jùmọ̀kẹ́	-15455
▁Karemera	-15456
▁Ketekete	-15457
▁Laiberia	-15458
▁Lawrence	-15459
▁Lifetime	-15460
▁Marathon	-15461
▁Marshall	-15462
▁Maryland	-15463
▁Memorial	-15464
▁Minister	-15465
▁Missouri	-15466
▁Miyamoto	-15467
▁Nobelpri	-15468
▁Obaluaye	-15469
▁Ogbomoso	-15470
▁Olusegun	-15471
▁Oládòkun	-15472
▁Ológbìín	-15473
▁Onírúurú	-15474
▁Phillips	-15475
▁Prinsloo	-15476
▁Príncipe	-15477
▁Religion	-15478
▁Salamatu	-15479
▁Salfador	-15480
▁Scandals	-15481
▁Scotland	-15482
▁Shettima	-15483
▁Symphony	-15484
▁Teachers	-15485
▁Tẹ́júoṣó	-15486
▁Ultimate	-15487
▁Vanguard	-15488
▁Wildlife	-15489
▁Zanzibar	-15490
▁agbẹnusọ	-15491
▁akariaye	-15492
▁akàròyìn	-15493
▁alagbase	-15494
▁alagbewo	-15495
▁alátìgbà	-15496
▁aláàkóso	-15497
▁anthropo	-15498
▁astatini	-15499
▁asunrárà	-15500
▁ayárabíà	-15501
▁aṣàtúnkọ	-15502
▁bẹ̀ẹ̀rẹ̀	-15503
▁dínlógún	-15504
▁díẹ̀díẹ̀	-15505
▁ekunrere	-15506
▁fifipamo	-15507
▁football	-15508
▁fúnrarẹ̀	-15509
▁gbigbona	-15510
▁gbájúmọ́	-15511
▁gbóríyìn	-15512
▁gigajulo	-15513
▁idaabobo	-15514
▁ifarakan	-15515
▁ifẹhinti	-15516
▁igbalode	-15517
▁igbasilẹ	-15518
▁igberiko	-15519
▁iranlowo	-15520
▁irojinle	-15521
▁isodogba	-15522
▁jákèjádò	-15523
▁kùrukùru	-15524
▁lágbègbè	-15525
▁lóbìnrin	-15526
▁lóríṣirí	-15527
▁lọpọlọpọ	-15528
▁lọ́gbọ́n	-15529
▁lọ́wọ́sí	-15530
▁minisita	-15531
▁mẹ́rìnlé	-15532
▁mẹ́rẹ̀ẹ̀	-15533
▁mẹ́tàdín	-15534
▁mọ́fíìmù	-15535
▁nigbogbo	-15536
▁ojúlùmọ̀	-15537
▁oniatomu	-15538
▁onísègùn	-15539
▁orileede	-15540
▁proteínì	-15541
▁titowobo	-15542
▁togajulo	-15543
▁Árámáìkì	-15544
▁Ìgbéyàwó	-15545
▁àdírẹ́sì	-15546
▁àjakálẹ̀	-15547
▁àpéjọpọ̀	-15548
▁àtéwógbà	-15549
▁àtìlẹyìn	-15550
▁àádọ́rin	-15551
▁ìbásepọ̀	-15552
▁ìdàgbàsó	-15553
▁ìdáàbòbò	-15554
▁ìfẹ̀hónú	-15555
▁ìgbaradì	-15556
▁ìgbéraga	-15557
▁ìgbẹ́jọ́	-15558
▁ìjàgbara	-15559
▁ìpànìyàn	-15560
▁ìtéwógbà	-15561
▁òfuurufú	-15562
▁Ṣiṣayẹwo	-15563
▁Ṣónáriwo	-15564
▁ṣiṣakoso	-15565
▁Ẹlẹgbara	-15566
▁Ẹnikẹ́ni	-15567
▁Ọdúnladé	-15568
▁Ọlátúnjí	-15569
▁Ọlátẹ́rù	-15570
▁Ọmọtunde	-15571
▁Ọstrélíà	-15572
▁Ọ̀kẹ́owó	-15573
▁ọ̀gbẹlẹ̀	-15574
▁ọ̀rúndún	-15575
▁ọ̀tọ̀tọ̀	-15576
University	-15577
díláàdọ́ta	-15578
fúnmiláyọ̀	-15579
laringotra	-15580
▁Abímbọ́lá	-15581
▁Agbẹjọ́rò	-15582
▁Alákùnrẹ́	-15583
▁Ascension	-15584
▁Beautiful	-15585
▁Beethoven	-15586
▁Blackwell	-15587
▁Challenge	-15588
▁Chartered	-15589
▁Christian	-15590
▁Coulibaly	-15591
▁Desperate	-15592
▁Directors	-15593
▁Domitilla	-15594
▁Elizabeth	-15595
▁Elédùmarè	-15596
▁Ethiopian	-15597
▁Financial	-15598
▁Fleurbaey	-15599
▁Genevieve	-15600
▁Goldsmith	-15601
▁Irúnmọlẹ̀	-15602
▁Kalẹdóníà	-15603
▁Kanyomozi	-15604
▁Kristiani	-15605
▁Kurdistan	-15606
▁Kẹ́místrì	-15607
▁Levenberg	-15608
▁Lítíréṣọ̀	-15609
▁Lúmọ̀ogun	-15610
▁Lọ́ndọ̀nù	-15611
▁Makẹdóníà	-15612
▁Morónkólá	-15613
▁Oludasile	-15614
▁Peninsula	-15615
▁Pentagonu	-15616
▁Petroleum	-15617
▁Stockholm	-15618
▁Testament	-15619
▁Tradition	-15620
▁Unachukwu	-15621
▁Unifásítì	-15622
▁afonifoji	-15623
▁alakọbẹrẹ	-15624
▁apakòkòrò	-15625
▁bẹ́ẹ̀sìni	-15626
▁ibiamusin	-15627
▁idanileko	-15628
▁idunadura	-15629
▁ifowopamo	-15630
▁irúnmọlẹ̀	-15631
▁iseelemin	-15632
▁isodipupo	-15633
▁kakiriaye	-15634
▁komunisti	-15635
▁kògbóògùn	-15636
▁megawatts	-15637
▁ohunkohun	-15638
▁ohunkóhun	-15639
▁olukuluku	-15640
▁olùṣàkóso	-15641
▁olúkúlùkù	-15642
▁omobinrin	-15643
▁onígbàgbó	-15644
▁onímọ̀ràn	-15645
▁oníàhámọ́	-15646
▁ribavirin	-15647
▁rọpárọsẹ̀	-15648
▁sílíkọ́nù	-15649
▁Ògèdèngbé	-15650
▁Ògúndoyin	-15651
▁Ògúnṣẹ̀yẹ	-15652
▁ṣẹ̀kẹ̀rẹ̀	-15653
▁Ọmọ́tọ́lá	-15654
▁ọmọlẹ́yìn	-15655
dínlọ́gọ́jọ	-15656
gberigberin	-15657
ishmaniasis	-15658
kàndínlógún	-15659
pokesperson	-15660
rẹ̀mílẹ́kún	-15661
▁Aquereburu	-15662
▁Barthélemy	-15663
▁Benjelloun	-15664
▁Fellowship	-15665
▁Hantavirus	-15666
▁Housewives	-15667
▁Idagbasoke	-15668
▁Immaculate	-15669
▁Industries	-15670
▁Innovation	-15671
▁Jerusalemu	-15672
▁Kọ́lẹ́ẹ̀jì	-15673
▁Leadership	-15674
▁Madagascar	-15675
▁Makanjuola	-15676
▁Manchester	-15677
▁Morgenthau	-15678
▁Ogiemwonyi	-15679
▁Olóbímitán	-15680
▁Rògbòdìyàn	-15681
▁afipagboko	-15682
▁ajalèlókun	-15683
▁ajìjàgbara	-15684
▁aláwọ̀dúdú	-15685
▁astronomer	-15686
▁ayọ́kẹ́lẹ́	-15687
▁fáírọ́ọ̀sì	-15688
▁gbajugbaja	-15689
▁gbogbogbòò	-15690
▁infarction	-15691
▁lorisirisi	-15692
▁lójoojúmọ́	-15693
▁lẹ́ẹ̀kansi	-15694
▁mùjẹ̀mùjẹ̀	-15695
▁nigbamiran	-15696
▁olùgbàlejò	-15697
▁titobijulo	-15698
▁tótóbijùlọ	-15699
▁Àtúnbọ̀tán	-15700
▁Ìgbẹ́kẹ̀lé	-15701
▁Ìrìnkánkán	-15702
▁ìfowópámọ́	-15703
▁ẹlẹ́ẹ̀kẹjọ	-15704
▁Ọ̀kọ̀ọ̀kan	-15705
▁ọ̀pọ̀lopọ̀	-15706
▁ọ̀ọ́dúnrún	-15707
dínláàdọ́rin	-15708
▁Christology	-15709
▁Institution	-15710
▁Journalists	-15711
▁Kordofanian	-15712
▁Nickelodeon	-15713
▁Nigbagbogbo	-15714
▁Nightingale	-15715
▁Pendergrass	-15716
▁Swítsàlandì	-15717
▁aláìlẹ́gbẹ́	-15718
▁federations	-15719
▁fẹ́ẹ́rẹ́fẹ́	-15720
▁kẹẹ̀ẹ́dógún	-15721
▁nígbàgbogbo	-15722
▁polytechnic	-15723
▁sikolashipu	-15724
▁tẹlẹfíṣọ̀nù	-15725
▁Àtìláńtíìkì	-15726
▁Ìrìnkèrindò	-15727
▁ẹlẹ́yàmẹ̀yà	-15728
▁Ọlájùmọ̀kẹ́	-15729
▁ọ̀rùndínlẹ́	-15730
▁Agbógungbórò	-15731
▁Austronesian	-15732
▁Bótilẹ̀jẹ́pé	-15733
▁Conservatory	-15734
▁Johannesburg	-15735
▁Progressives	-15736
▁Tropiduridae	-15737
▁alákọ́bẹ̀rẹ̀	-15738
▁apanilẹ́rìín	-15739
▁aringbungbun	-15740
▁constituency	-15741
▁ibaraẹnisọrọ	-15742
▁kejidinlogun	-15743
▁kẹẹ̀dọ́gbọ̀n	-15744
▁mejidinlogun	-15745
▁tẹlif́iṣọ̀nù	-15746
▁ìnfẹ́ṣọ́ọ̀nù	-15747
kiobronkaitisi	-15748
▁abánidọ́rẹ̀ẹ́	-15749
▁amóhùnmáwòrán	-15750
▁fọwọ́sowọ́pọ̀	-15751
▁igbohunsafefe	-15752
▁lọ́wọ́́lọ́wọ́	-15753
▁marundinlogun	-15754
▁márùndínlógún	-15755
▁tẹlifíṣọ́ọ̀nù	-15756
fẹ́tọ̀ọ́agbègbè	-15757
▁Pharmaceutical	-15758
▁Representative	-15759
▁communications	-15760
▁igberinojuorun	-15761
▁mẹ́rìnlélógójì	-15762
▁mẹ́tàdínlógójì	-15763
▁ìbáraẹnisọ̀rọ̀	-15764
▁Ọ̀rúnbẹ̀mẹ́kún	-15765
▁Kejìdínlọ́gbọ̀n	-15766
▁Representatives	-15767
▁méjìdínlọ́gbọ̀n	-15768
▁méjìdínlọ́gọ́ta	-15769
,3	-15770
.'	-15771
.)	-15772
.’	-15773
42	-15774
?,	-15775
AB	-15776
Ac	-15777
Af	-15778
An	-15779
At	-15780
Bi	-15781
DS	-15782
EI	-15783
ES	-15784
En	-15785
GF	-15786
GI	-15787
HB	-15788
HC	-15789
HR	-15790
HS	-15791
Is	-15792
Jo	-15793
KN	-15794
Lẹ	-15795
Mr	-15796
NP	-15797
OY	-15798
Or	-15799
PL	-15800
PM	-15801
Pe	-15802
Pu	-15803
RS	-15804
Re	-15805
Ru	-15806
SE	-15807
SW	-15808
Sa	-15809
Se	-15810
Sh	-15811
Sy	-15812
Sè	-15813
Tí	-15814
Tò	-15815
US	-15816
WA	-15817
Ya	-15818
dh	-15819
e̟	-15820
hr	-15821
if	-15822
lc	-15823
lh	-15824
oa	-15825
o̟	-15826
qa	-15827
rg	-15828
Àà	-15829
áa	-15830
ée	-15831
òm	-15832
ńg	-15833
̀o	-15834
–3	-15835
)).	-15836
-27	-15837
-9.	-15838
1.3	-15839
87)	-15840
91)	-15841
ALL	-15842
Ari	-15843
Bri	-15844
Bro	-15845
CAR	-15846
Con	-15847
Del	-15848
Dou	-15849
FAM	-15850
Gen	-15851
Haq	-15852
INT	-15853
IPP	-15854
Ile	-15855
Iwe	-15856
Jet	-15857
MWF	-15858
Mar	-15859
NTA	-15860
Oli	-15861
Ore	-15862
Out	-15863
PCR	-15864
Pen	-15865
RTI	-15866
Ruf	-15867
Ser	-15868
Sil	-15869
Stv	-15870
Swe	-15871
UNA	-15872
Uch	-15873
VCA	-15874
WEN	-15875
Zan	-15876
Zos	-15877
afi	-15878
amì	-15879
amú	-15880
apo	-15881
aya	-15882
aṣọ	-15883
bai	-15884
bbà	-15885
bei	-15886
bìà	-15887
chn	-15888
ció	-15889
cku	-15890
dam	-15891
deo	-15892
dex	-15893
dua	-15894
dáì	-15895
dìn	-15896
día	-15897
dùí	-15898
efe	-15899
Kú	-15900
Aha	-15901
cog	-15902
erd	-15903
ern	-15904
esẹ	-15905
eut	-15906
eyi	-15907
fah	-15908
fli	-15909
gau	-15910
gòn	-15911
heq	-15912
hya	-15913
iav	-15914
ijn	-15915
ili	-15916
ily	-15917
irs	-15918
ito	-15919
iṣu	-15920
jfe	-15921
ján	-15922
kaz	-15923
kic	-15924
kpo	-15925
kwe	-15926
kyo	-15927
káù	-15928
ldó	-15929
leb	-15930
lfo	-15931
lir	-15932
liu	-15933
lov	-15934
lue	-15935
láé	-15936
lè̟	-15937
nst	-15938
née	-15939
oca	-15940
odo	-15941
osa	-15942
pil	-15943
píà	-15944
rbá	-15945
rum	-15946
ràá	-15947
rìà	-15948
sem	-15949
shà	-15950
skà	-15951
sle	-15952
ssy	-15953
taj	-15954
thu	-15955
tom	-15956
tou	-15957
ual	-15958
umf	-15959
upe	-15960
utù	-15961
vez	-15962
wah	-15963
web	-15964
wry	-15965
wèy	-15966
zac	-15967
zal	-15968
zan	-15969
zon	-15970
ÈRÉ	-15971
Ìgb	-15972
Òpó	-15973
àba	-15974
àkọ	-15975
àmí	-15976
àmú	-15977
ásù	-15978
áwá	-15979
èje	-15980
èrí	-15981
étì	-15982
ìra	-15983
òbá	-15984
ùní	-15985
úmọ	-15986
úrà	-15987
úrù	-15988
ńdà	-15989
ńdì	-15990
ńre	-15991
ǹkì	-15992
́ọ́	-15993
Ọmọ	-15994
ọjọ	-15995
ọlẹ	-15996
ọnd	-15997
ọ̀s	-15998
ọ̀ń	-15999
aw	-16000
Cho	-16001
Odò	-16002
atẹ	-16003
nku	-16004
▁5%	-16005
▁81	-16006
▁:-	-16007
▁BA	-16008
▁BV	-16009
▁Bì	-16010
▁CT	-16011
▁DA	-16012
▁DJ	-16013
▁Dì	-16014
▁EP	-16015
▁Eé	-16016
▁FO	-16017
▁GB	-16018
▁Io	-16019
▁Ky	-16020
▁MV	-16021
▁MW	-16022
▁Mz	-16023
▁NP	-16024
▁OR	-16025
▁RA	-16026
▁Ry	-16027
▁SW	-16028
▁Sì	-16029
▁Up	-16030
▁Uz	-16031
▁ac	-16032
▁ao	-16033
▁b́	-16034
▁ft	-16035
▁g̣	-16036
▁hò	-16037
▁jò	-16038
▁mT	-16039
▁mń	-16040
▁tị	-16041
▁Ée	-16042
▁Ì̀	-16043
▁ÒṢ	-16044
▁ùn	-16045
▁Ṣu	-16046
▁ṣI	-16047
-19,	-16048
1995	-16049
2019	-16050
99).	-16051
Agba	-16052
Agbá	-16053
Baba	-16054
Bayi	-16055
COOH	-16056
Cher	-16057
Cong	-16058
Dami	-16059
Egba	-16060
Juju	-16061
June	-16062
Late	-16063
Pupa	-16064
Seni	-16065
aded	-16066
aiti	-16067
alfa	-16068
amak	-16069
anal	-16070
aníà	-16071
aram	-16072
audh	-16073
azor	-16074
bajẹ	-16075
baya	-16076
bean	-16077
beau	-16078
beka	-16079
belu	-16080
berf	-16081
bibi	-16082
bira	-16083
bisi	-16084
blot	-16085
born	-16086
bula	-16087
bune	-16088
buri	-16089
bátì	-16090
cars	-16091
cess	-16092
chay	-16093
chen	-16094
cifi	-16095
cist	-16096
ckie	-16097
ckup	-16098
coin	-16099
aic	-16100
hia	-16101
opu	-16102
put	-16103
voj	-16104
Madu	-16105
adal	-16106
beca	-16107
chir	-16108
coma	-16109
come	-16110
ctur	-16111
dajo	-16112
demu	-16113
dene	-16114
deon	-16115
depo	-16116
desh	-16117
dess	-16118
dhar	-16119
dier	-16120
digo	-16121
dile	-16122
dney	-16123
doch	-16124
dugu	-16125
dìsí	-16126
dọ̀s	-16127
ejen	-16128
ekwe	-16129
elts	-16130
emme	-16131
enus	-16132
esar	-16133
ethe	-16134
e̟jó	-16135
fect	-16136
fiel	-16137
fiye	-16138
flix	-16139
foli	-16140
folk	-16141
fèrí	-16142
game	-16143
gasy	-16144
geli	-16145
ghai	-16146
ghal	-16147
gher	-16148
gian	-16149
gida	-16150
gile	-16151
gàgà	-16152
gédé	-16153
gòsì	-16154
hala	-16155
heir	-16156
hist	-16157
hole	-16158
host	-16159
hott	-16160
ifẹ̀	-16161
igba	-16162
igne	-16163
injù	-16164
inst	-16165
irsi	-16166
jays	-16167
jjad	-16168
joku	-16169
jubi	-16170
juka	-16171
juma	-16172
juyi	-16173
jání	-16174
jẹmu	-16175
jọra	-16176
kadì	-16177
kaka	-16178
kará	-16179
kasí	-16180
kena	-16181
kibi	-16182
kiya	-16183
klee	-16184
kleu	-16185
kman	-16186
kodu	-16187
koya	-16188
kozy	-16189
ksẹ́	-16190
ktẹ́	-16191
kuba	-16192
kulò	-16193
kádí	-16194
kálẹ	-16195
kèyí	-16196
kírù	-16197
kómà	-16198
kótó	-16199
New	-16200
ùtú	-16201
▁Áì	-16202
Cool	-16203
bìlì	-16204
dọta	-16205
kúwì	-16206
kẹni	-16207
kẹsẹ	-16208
laja	-16209
layè	-16210
leim	-16211
lema	-16212
lize	-16213
lofo	-16214
lton	-16215
lure	-16216
lédè	-16217
lérí	-16218
lísè	-16219
lòkù	-16220
lóge	-16221
madu	-16222
mamo	-16223
mans	-16224
mara	-16225
mark	-16226
melu	-16227
mewa	-16228
mgbó	-16229
mina	-16230
mobi	-16231
motu	-16232
mowe	-16233
moye	-16234
mìrè	-16235
mọdi	-16236
mọja	-16237
nakò	-16238
nedy	-16239
nett	-16240
nhub	-16241
nior	-16242
nipa	-16243
nstá	-16244
nual	-16245
nínú	-16246
níṣà	-16247
omen	-16248
onjo	-16249
onye	-16250
oolf	-16251
oost	-16252
ople	-16253
orẹ́	-16254
otoo	-16255
pira	-16256
pona	-16257
puty	-16258
pàkò	-16259
pàlà	-16260
pínì	-16261
pọmọ	-16262
qaga	-16263
quid	-16264
rams	-16265
rasí	-16266
rate	-16267
redu	-16268
rial	-16269
rime	-16270
rine	-16271
rive	-16272
[...]
